{
  "<unk>": 0,
  "<bos>": 1,
  "<eos>": 2,
  "<pad>": 3,
  " ": 4,
  "!": 5,
  "\"": 6,
  "\")": 7,
  "\",": 8,
  "\"-এর": 9,
  "\"|": 10,
  "\"।": 11,
  "#": 12,
  "$": 13,
  "%": 14,
  "%)": 15,
  "%,": 16,
  "%।": 17,
  "&": 18,
  "'": 19,
  "''": 20,
  "',": 21,
  "'-এর": 22,
  "'s": 23,
  "'।": 24,
  "'আ": 25,
  "'র": 26,
  "'ল": 27,
  "'স": 28,
  "(": 29,
  ")": 30,
  "),": 31,
  ")-এর": 32,
  ").": 33,
  "):": 34,
  ");": 35,
  ")।": 36,
  "*": 37,
  "+": 38,
  ",": 39,
  ",০": 40,
  ",০০": 41,
  ",০০০": 42,
  ",২": 43,
  ",৩": 44,
  ",৪": 45,
  ",৫": 46,
  ",৬": 47,
  ",৭": 48,
  ",৮": 49,
  ",৯": 50,
  "-": 51,
  "-'": 52,
  "--": 53,
  "-1": 54,
  "-19": 55,
  "-2": 56,
  "-align": 57,
  "-align:": 58,
  "-অ": 59,
  "-অনু": 60,
  "-আ": 61,
  "-আপ": 62,
  "-ই": 63,
  "-ইন": 64,
  "-উ": 65,
  "-এ": 66,
  "-এ,": 67,
  "-এর": 68,
  "-ও": 69,
  "-ক": 70,
  "-কে": 71,
  "-খ": 72,
  "-গ": 73,
  "-চ": 74,
  "-ছ": 75,
  "-জ": 76,
  "-জুন": 77,
  "-ট": 78,
  "-ড": 79,
  "-ডিসেম্বর": 80,
  "-ত": 81,
  "-তে": 82,
  "-দ": 83,
  "-দ্ব": 84,
  "-ন": 85,
  "-নি": 86,
  "-প": 87,
  "-পর": 88,
  "-পশ্চিম": 89,
  "-পা": 90,
  "-পূর্ব": 91,
  "-পূর্বে": 92,
  "-প্র": 93,
  "-ফ": 94,
  "-ব": 95,
  "-বি": 96,
  "-ব্র": 97,
  "-ভ": 98,
  "-ভিত্তিক": 99,
  "-ম": 100,
  "-মা": 101,
  "-মার্চ": 102,
  "-মে": 103,
  "-র": 104,
  "-রা": 105,
  "-র্গ": 106,
  "-ল": 107,
  "-শ": 108,
  "-শত": 109,
  "-শ্রেণ": 110,
  "-শ্রেণীর": 111,
  "-স": 112,
  "-সং": 113,
  "-সম": 114,
  "-সম্প": 115,
  "-সু": 116,
  "-সে": 117,
  "-সেপ্টেম্বর": 118,
  "-হ": 119,
  "-০": 120,
  "-১": 121,
  "-১০": 122,
  "-১১": 123,
  "-১২": 124,
  "-১৪": 125,
  "-১৫": 126,
  "-১৬": 127,
  "-১৭": 128,
  "-১৮": 129,
  "-১৯": 130,
  "-১৯৮": 131,
  "-১৯৯": 132,
  "-২": 133,
  "-২০": 134,
  "-২০০": 135,
  "-২০১": 136,
  "-৩": 137,
  "-৪": 138,
  "-৫": 139,
  "-৬": 140,
  "-৭": 141,
  "-৮": 142,
  "-৯": 143,
  ".": 144,
  ".)": 145,
  ".,": 146,
  "..": 147,
  "...": 148,
  "....": 149,
  ".com": 150,
  ".মি": 151,
  ".০": 152,
  ".১": 153,
  ".১৯": 154,
  ".২": 155,
  ".৩": 156,
  ".৪": 157,
  ".৫": 158,
  ".৬": 159,
  ".৭": 160,
  ".৮": 161,
  ".৯": 162,
  "/": 163,
  "/০": 164,
  "/১৯": 165,
  "0": 166,
  "0.": 167,
  "00": 168,
  "01": 169,
  "1": 170,
  "1.": 171,
  "19": 172,
  "2": 173,
  "2)": 174,
  "2.": 175,
  "20": 176,
  "3": 177,
  "4": 178,
  "5": 179,
  "5.": 180,
  "6": 181,
  "7": 182,
  "8": 183,
  "9": 184,
  ":": 185,
  ";": 186,
  "<": 187,
  "=": 188,
  "=\"": 189,
  "=center": 190,
  "=center|": 191,
  ">": 192,
  "?": 193,
  "@": 194,
  "A": 195,
  "B": 196,
  "C": 197,
  "D": 198,
  "E": 199,
  "F": 200,
  "G": 201,
  "H": 202,
  "I": 203,
  "J": 204,
  "K": 205,
  "L": 206,
  "M": 207,
  "N": 208,
  "O": 209,
  "P": 210,
  "Q": 211,
  "R": 212,
  "S": 213,
  "T": 214,
  "The": 215,
  "U": 216,
  "V": 217,
  "W": 218,
  "X": 219,
  "Y": 220,
  "Z": 221,
  "[": 222,
  "\\": 223,
  "]": 224,
  "^": 225,
  "_": 226,
  "`": 227,
  "a": 228,
  "a)": 229,
  "a,": 230,
  "a.": 231,
  "ab": 232,
  "able": 233,
  "ac": 234,
  "ace": 235,
  "ach": 236,
  "ack": 237,
  "act": 238,
  "ad": 239,
  "ae": 240,
  "ag": 241,
  "age": 242,
  "ah": 243,
  "ai": 244,
  "ail": 245,
  "ain": 246,
  "aj": 247,
  "ak": 248,
  "al": 249,
  "align": 250,
  "all": 251,
  "am": 252,
  "amb": 253,
  "ame": 254,
  "an": 255,
  "and": 256,
  "ang": 257,
  "ann": 258,
  "ans": 259,
  "ant": 260,
  "ap": 261,
  "ar": 262,
  "ard": 263,
  "are": 264,
  "ari": 265,
  "ark": 266,
  "art": 267,
  "ary": 268,
  "as": 269,
  "ase": 270,
  "ash": 271,
  "ass": 272,
  "ast": 273,
  "at": 274,
  "ata": 275,
  "ate": 276,
  "ated": 277,
  "ates": 278,
  "ath": 279,
  "ation": 280,
  "ational": 281,
  "ations": 282,
  "att": 283,
  "av": 284,
  "aw": 285,
  "ay": 286,
  "az": 287,
  "b": 288,
  "ber": 289,
  "c": 290,
  "cc": 291,
  "ce": 292,
  "center": 293,
  "ces": 294,
  "ch": 295,
  "che": 296,
  "ci": 297,
  "cl": 298,
  "com": 299,
  "ct": 300,
  "ction": 301,
  "cy": 302,
  "d": 303,
  "e": 304,
  "e)": 305,
  "e,": 306,
  "ear": 307,
  "eb": 308,
  "ebs": 309,
  "ebsite": 310,
  "ec": 311,
  "ech": 312,
  "ect": 313,
  "ed": 314,
  "edia": 315,
  "eg": 316,
  "el": 317,
  "ell": 318,
  "em": 319,
  "en": 320,
  "ence": 321,
  "end": 322,
  "eng": 323,
  "ens": 324,
  "ent": 325,
  "enter": 326,
  "ep": 327,
  "er": 328,
  "er,": 329,
  "ern": 330,
  "ers": 331,
  "ert": 332,
  "erv": 333,
  "es": 334,
  "es,": 335,
  "ess": 336,
  "est": 337,
  "et": 338,
  "eth": 339,
  "ev": 340,
  "ew": 341,
  "ex": 342,
  "ext": 343,
  "ey": 344,
  "f": 345,
  "fer": 346,
  "ff": 347,
  "file": 348,
  "form": 349,
  "formation": 350,
  "ft": 351,
  "g": 352,
  "ge": 353,
  "gl": 354,
  "glish": 355,
  "h": 356,
  "he": 357,
  "hem": 358,
  "hen": 359,
  "ho": 360,
  "i": 361,
  "i,": 362,
  "ia": 363,
  "ial": 364,
  "ian": 365,
  "ib": 366,
  "ic": 367,
  "ical": 368,
  "ice": 369,
  "ich": 370,
  "icial": 371,
  "ics": 372,
  "ict": 373,
  "id": 374,
  "ide": 375,
  "ie": 376,
  "ies": 377,
  "iew": 378,
  "if": 379,
  "ife": 380,
  "ig": 381,
  "igh": 382,
  "ight": 383,
  "ign": 384,
  "ik": 385,
  "il": 386,
  "ile": 387,
  "ill": 388,
  "im": 389,
  "in": 390,
  "ind": 391,
  "ine": 392,
  "ing": 393,
  "int": 394,
  "io": 395,
  "iograph": 396,
  "ion": 397,
  "ip": 398,
  "ir": 399,
  "ire": 400,
  "is": 401,
  "isc": 402,
  "ish": 403,
  "ism": 404,
  "iss": 405,
  "ist": 406,
  "istory": 407,
  "it": 408,
  "ite": 409,
  "ited": 410,
  "ith": 411,
  "ition": 412,
  "ity": 413,
  "iv": 414,
  "ive": 415,
  "ivers": 416,
  "iz": 417,
  "j": 418,
  "k": 419,
  "ket": 420,
  "l": 421,
  "ld": 422,
  "le": 423,
  "lect": 424,
  "lection": 425,
  "les": 426,
  "line": 427,
  "ly": 428,
  "m": 429,
  "man": 430,
  "ment": 431,
  "mer": 432,
  "meric": 433,
  "n": 434,
  "o": 435,
  "o.": 436,
  "ob": 437,
  "oc": 438,
  "od": 439,
  "og": 440,
  "ograph": 441,
  "oh": 442,
  "ok": 443,
  "ol": 444,
  "olog": 445,
  "ology": 446,
  "om": 447,
  "on": 448,
  "on,": 449,
  "ond": 450,
  "ong": 451,
  "ont": 452,
  "ood": 453,
  "ook": 454,
  "op": 455,
  "oph": 456,
  "or": 457,
  "ord": 458,
  "ore": 459,
  "org": 460,
  "ork": 461,
  "orld": 462,
  "orm": 463,
  "orn": 464,
  "ort": 465,
  "ory": 466,
  "os": 467,
  "ost": 468,
  "ot": 469,
  "oun": 470,
  "our": 471,
  "ourn": 472,
  "ous": 473,
  "out": 474,
  "ov": 475,
  "ow": 476,
  "oy": 477,
  "p": 478,
  "p.": 479,
  "pan": 480,
  "pe": 481,
  "per": 482,
  "ph": 483,
  "pl": 484,
  "ple": 485,
  "port": 486,
  "pr": 487,
  "pt": 488,
  "q": 489,
  "qu": 490,
  "r": 491,
  "ra": 492,
  "rad": 493,
  "ral": 494,
  "ram": 495,
  "ran": 496,
  "ransl": 497,
  "raph": 498,
  "re": 499,
  "ree": 500,
  "ri": 501,
  "ric": 502,
  "rid": 503,
  "rit": 504,
  "ro": 505,
  "rom": 506,
  "ron": 507,
  "row": 508,
  "ru": 509,
  "ry": 510,
  "s": 511,
  "s)": 512,
  "s,": 513,
  "s.": 514,
  "s:": 515,
  "se": 516,
  "sh": 517,
  "sl": 518,
  "so": 519,
  "span": 520,
  "st": 521,
  "stit": 522,
  "t": 523,
  "te": 524,
  "ter": 525,
  "tern": 526,
  "th": 527,
  "ther": 528,
  "u": 529,
  "ual": 530,
  "ub": 531,
  "ubl": 532,
  "uc": 533,
  "ud": 534,
  "ue": 535,
  "ug": 536,
  "ugh": 537,
  "uk": 538,
  "ul": 539,
  "ult": 540,
  "um": 541,
  "un": 542,
  "und": 543,
  "up": 544,
  "ur": 545,
  "ure": 546,
  "us": 547,
  "ust": 548,
  "ut": 549,
  "uth": 550,
  "v": 551,
  "w": 552,
  "x": 553,
  "y": 554,
  "y,": 555,
  "yle": 556,
  "yle=\"": 557,
  "yn": 558,
  "ys": 559,
  "yst": 560,
  "z": 561,
  "{": 562,
  "|": 563,
  "||": 564,
  "}": 565,
  "~": 566,
  "": 567,
  "¡": 568,
  "¢": 569,
  "£": 570,
  "¤": 571,
  "¥": 572,
  "§": 573,
  "¨": 574,
  "©": 575,
  "«": 576,
  "¬": 577,
  "­": 578,
  "®": 579,
  "¯": 580,
  "°": 581,
  "±": 582,
  "²": 583,
  "³": 584,
  "´": 585,
  "µ": 586,
  "¶": 587,
  "·": 588,
  "¹": 589,
  "º": 590,
  "»": 591,
  "¼": 592,
  "½": 593,
  "¾": 594,
  "¿": 595,
  "À": 596,
  "Á": 597,
  "Â": 598,
  "Ä": 599,
  "Å": 600,
  "Æ": 601,
  "Ç": 602,
  "È": 603,
  "É": 604,
  "Ë": 605,
  "Í": 606,
  "Î": 607,
  "Ñ": 608,
  "Ó": 609,
  "Ô": 610,
  "Ö": 611,
  "×": 612,
  "Ø": 613,
  "Ú": 614,
  "Ü": 615,
  "Þ": 616,
  "ß": 617,
  "à": 618,
  "á": 619,
  "â": 620,
  "ã": 621,
  "ä": 622,
  "å": 623,
  "æ": 624,
  "ç": 625,
  "è": 626,
  "é": 627,
  "ê": 628,
  "ë": 629,
  "ì": 630,
  "í": 631,
  "î": 632,
  "ï": 633,
  "ð": 634,
  "ñ": 635,
  "ò": 636,
  "ó": 637,
  "ô": 638,
  "õ": 639,
  "ö": 640,
  "÷": 641,
  "ø": 642,
  "ù": 643,
  "ú": 644,
  "û": 645,
  "ü": 646,
  "ý": 647,
  "þ": 648,
  "ÿ": 649,
  "Ā": 650,
  "ā": 651,
  "ă": 652,
  "ą": 653,
  "ć": 654,
  "Č": 655,
  "č": 656,
  "Đ": 657,
  "đ": 658,
  "Ē": 659,
  "ē": 660,
  "ĕ": 661,
  "ė": 662,
  "ę": 663,
  "ě": 664,
  "ğ": 665,
  "Ġ": 666,
  "ġ": 667,
  "ģ": 668,
  "ĥ": 669,
  "ħ": 670,
  "ĩ": 671,
  "Ī": 672,
  "ī": 673,
  "ĭ": 674,
  "İ": 675,
  "ı": 676,
  "ļ": 677,
  "ľ": 678,
  "ł": 679,
  "ń": 680,
  "ņ": 681,
  "ň": 682,
  "ŋ": 683,
  "Ō": 684,
  "ō": 685,
  "ŏ": 686,
  "ő": 687,
  "œ": 688,
  "ŕ": 689,
  "Ř": 690,
  "ř": 691,
  "Ś": 692,
  "ś": 693,
  "Ş": 694,
  "ş": 695,
  "Š": 696,
  "š": 697,
  "ţ": 698,
  "ť": 699,
  "ū": 700,
  "ŭ": 701,
  "ů": 702,
  "ű": 703,
  "ŷ": 704,
  "Ź": 705,
  "ź": 706,
  "ż": 707,
  "ž": 708,
  "Ə": 709,
  "ƒ": 710,
  "ƛ": 711,
  "ơ": 712,
  "ư": 713,
  "ƿ": 714,
  "ǀ": 715,
  "ǂ": 716,
  "ǃ": 717,
  "Ǎ": 718,
  "ǎ": 719,
  "ǐ": 720,
  "ǒ": 721,
  "ǔ": 722,
  "ǖ": 723,
  "ǟ": 724,
  "ǫ": 725,
  "ǵ": 726,
  "Ș": 727,
  "ș": 728,
  "Ț": 729,
  "ț": 730,
  "Ȝ": 731,
  "ȝ": 732,
  "ȧ": 733,
  "Ȳ": 734,
  "ɐ": 735,
  "ɑ": 736,
  "ɒ": 737,
  "ɔ": 738,
  "ɕ": 739,
  "ɖ": 740,
  "ɘ": 741,
  "ə": 742,
  "ɛ": 743,
  "ɜ": 744,
  "ɝ": 745,
  "ɡ": 746,
  "ɢ": 747,
  "ɣ": 748,
  "ɤ": 749,
  "ɦ": 750,
  "ɨ": 751,
  "ɪ": 752,
  "ɫ": 753,
  "ɬ": 754,
  "ɭ": 755,
  "ɯ": 756,
  "ɲ": 757,
  "ɳ": 758,
  "ɴ": 759,
  "ɹ": 760,
  "ɻ": 761,
  "ɽ": 762,
  "ɾ": 763,
  "ʀ": 764,
  "ʁ": 765,
  "ʂ": 766,
  "ʃ": 767,
  "ʈ": 768,
  "ʊ": 769,
  "ʋ": 770,
  "ʌ": 771,
  "ʏ": 772,
  "ʐ": 773,
  "ʒ": 774,
  "ʔ": 775,
  "ʕ": 776,
  "ʙ": 777,
  "ʟ": 778,
  "ʤ": 779,
  "ʧ": 780,
  "ʨ": 781,
  "ʰ": 782,
  "ʱ": 783,
  "ʲ": 784,
  "ʷ": 785,
  "ʻ": 786,
  "ʼ": 787,
  "ʾ": 788,
  "ʿ": 789,
  "ˀ": 790,
  "ˁ": 791,
  "ˆ": 792,
  "ˈ": 793,
  "ˉ": 794,
  "ˌ": 795,
  "ː": 796,
  "ˑ": 797,
  "˘": 798,
  "˚": 799,
  "ˠ": 800,
  "ˢ": 801,
  "˥": 802,
  "˦": 803,
  "˧": 804,
  "˨": 805,
  "˩": 806,
  "̀": 807,
  "́": 808,
  "̂": 809,
  "̃": 810,
  "̄": 811,
  "̆": 812,
  "̌": 813,
  "̐": 814,
  "̚": 815,
  "̠": 816,
  "̣": 817,
  "̥": 818,
  "̩": 819,
  "̪": 820,
  "̯": 821,
  "̱": 822,
  "̲": 823,
  "͟": 824,
  "͡": 825,
  "΄": 826,
  "Ά": 827,
  "Ή": 828,
  "Ί": 829,
  "Ό": 830,
  "Α": 831,
  "Β": 832,
  "Γ": 833,
  "Δ": 834,
  "Ε": 835,
  "Ζ": 836,
  "Η": 837,
  "Θ": 838,
  "Ι": 839,
  "Κ": 840,
  "Λ": 841,
  "Μ": 842,
  "Ν": 843,
  "Ο": 844,
  "Π": 845,
  "Ρ": 846,
  "Σ": 847,
  "Τ": 848,
  "Υ": 849,
  "Φ": 850,
  "Χ": 851,
  "Ψ": 852,
  "Ω": 853,
  "ά": 854,
  "έ": 855,
  "ή": 856,
  "ί": 857,
  "α": 858,
  "β": 859,
  "γ": 860,
  "δ": 861,
  "ε": 862,
  "ζ": 863,
  "η": 864,
  "θ": 865,
  "ι": 866,
  "κ": 867,
  "λ": 868,
  "μ": 869,
  "ν": 870,
  "ξ": 871,
  "ο": 872,
  "π": 873,
  "ρ": 874,
  "ς": 875,
  "σ": 876,
  "τ": 877,
  "υ": 878,
  "φ": 879,
  "χ": 880,
  "ψ": 881,
  "ω": 882,
  "ϊ": 883,
  "ό": 884,
  "ύ": 885,
  "ώ": 886,
  "ϕ": 887,
  "ϖ": 888,
  "ϣ": 889,
  "ϯ": 890,
  "Ё": 891,
  "І": 892,
  "Ї": 893,
  "Ј": 894,
  "Ў": 895,
  "А": 896,
  "Б": 897,
  "В": 898,
  "Г": 899,
  "Д": 900,
  "Е": 901,
  "Ж": 902,
  "З": 903,
  "И": 904,
  "К": 905,
  "Л": 906,
  "М": 907,
  "Н": 908,
  "О": 909,
  "П": 910,
  "Р": 911,
  "С": 912,
  "Т": 913,
  "У": 914,
  "Ф": 915,
  "Х": 916,
  "Ц": 917,
  "Ч": 918,
  "Ш": 919,
  "Э": 920,
  "Ю": 921,
  "Я": 922,
  "а": 923,
  "б": 924,
  "в": 925,
  "г": 926,
  "д": 927,
  "е": 928,
  "ж": 929,
  "з": 930,
  "и": 931,
  "й": 932,
  "к": 933,
  "л": 934,
  "м": 935,
  "н": 936,
  "о": 937,
  "п": 938,
  "р": 939,
  "с": 940,
  "т": 941,
  "у": 942,
  "ф": 943,
  "х": 944,
  "ц": 945,
  "ч": 946,
  "ш": 947,
  "щ": 948,
  "ъ": 949,
  "ы": 950,
  "ь": 951,
  "э": 952,
  "ю": 953,
  "я": 954,
  "ё": 955,
  "є": 956,
  "і": 957,
  "ї": 958,
  "ј": 959,
  "њ": 960,
  "ћ": 961,
  "Ѣ": 962,
  "҆": 963,
  "ғ": 964,
  "җ": 965,
  "Қ": 966,
  "қ": 967,
  "ҡ": 968,
  "ң": 969,
  "ҧ": 970,
  "ү": 971,
  "һ": 972,
  "Ӏ": 973,
  "Ә": 974,
  "ә": 975,
  "ө": 976,
  "Ա": 977,
  "Բ": 978,
  "Դ": 979,
  "Ե": 980,
  "Է": 981,
  "Ժ": 982,
  "Ի": 983,
  "Կ": 984,
  "Հ": 985,
  "Մ": 986,
  "Ն": 987,
  "Ս": 988,
  "Վ": 989,
  "Տ": 990,
  "Ց": 991,
  "Փ": 992,
  "ա": 993,
  "բ": 994,
  "գ": 995,
  "դ": 996,
  "ե": 997,
  "զ": 998,
  "է": 999,
  "ը": 1000,
  "թ": 1001,
  "ժ": 1002,
  "ի": 1003,
  "լ": 1004,
  "խ": 1005,
  "կ": 1006,
  "հ": 1007,
  "ձ": 1008,
  "ղ": 1009,
  "մ": 1010,
  "յ": 1011,
  "ն": 1012,
  "շ": 1013,
  "ո": 1014,
  "պ": 1015,
  "ջ": 1016,
  "ռ": 1017,
  "ս": 1018,
  "վ": 1019,
  "տ": 1020,
  "ր": 1021,
  "ց": 1022,
  "ւ": 1023,
  "փ": 1024,
  "ք": 1025,
  "օ": 1026,
  "և": 1027,
  "ְ": 1028,
  "ִ": 1029,
  "ֵ": 1030,
  "ֶ": 1031,
  "ַ": 1032,
  "ָ": 1033,
  "ֹ": 1034,
  "ּ": 1035,
  "א": 1036,
  "ב": 1037,
  "ג": 1038,
  "ד": 1039,
  "ה": 1040,
  "ו": 1041,
  "ז": 1042,
  "ח": 1043,
  "ט": 1044,
  "י": 1045,
  "ך": 1046,
  "כ": 1047,
  "ל": 1048,
  "ם": 1049,
  "מ": 1050,
  "ן": 1051,
  "נ": 1052,
  "ס": 1053,
  "ע": 1054,
  "ף": 1055,
  "פ": 1056,
  "ץ": 1057,
  "צ": 1058,
  "ק": 1059,
  "ר": 1060,
  "ש": 1061,
  "ת": 1062,
  "،": 1063,
  "ؒ": 1064,
  "ؓ": 1065,
  "ؕ": 1066,
  "؟": 1067,
  "ء": 1068,
  "آ": 1069,
  "أ": 1070,
  "ؤ": 1071,
  "إ": 1072,
  "ئ": 1073,
  "ا": 1074,
  "ال": 1075,
  "ب": 1076,
  "ة": 1077,
  "ت": 1078,
  "ث": 1079,
  "ج": 1080,
  "ح": 1081,
  "خ": 1082,
  "د": 1083,
  "ذ": 1084,
  "ر": 1085,
  "ز": 1086,
  "س": 1087,
  "ش": 1088,
  "ص": 1089,
  "ض": 1090,
  "ط": 1091,
  "ظ": 1092,
  "ع": 1093,
  "غ": 1094,
  "ـ": 1095,
  "ف": 1096,
  "ق": 1097,
  "ك": 1098,
  "ل": 1099,
  "م": 1100,
  "ن": 1101,
  "ه": 1102,
  "و": 1103,
  "ى": 1104,
  "ي": 1105,
  "ً": 1106,
  "ٌ": 1107,
  "ٍ": 1108,
  "َ": 1109,
  "ُ": 1110,
  "ِ": 1111,
  "ّ": 1112,
  "ْ": 1113,
  "ٓ": 1114,
  "ٔ": 1115,
  "ٖ": 1116,
  "ٗ": 1117,
  "٣": 1118,
  "٪": 1119,
  "ٰ": 1120,
  "ٱ": 1121,
  "ٸ": 1122,
  "ٹ": 1123,
  "ٺ": 1124,
  "ٻ": 1125,
  "ٽ": 1126,
  "پ": 1127,
  "ٿ": 1128,
  "ڀ": 1129,
  "ڃ": 1130,
  "چ": 1131,
  "ڇ": 1132,
  "ڈ": 1133,
  "ډ": 1134,
  "ڊ": 1135,
  "ڌ": 1136,
  "ڏ": 1137,
  "ڑ": 1138,
  "ړ": 1139,
  "ژ": 1140,
  "ڙ": 1141,
  "ڤ": 1142,
  "ک": 1143,
  "ڪ": 1144,
  "ګ": 1145,
  "گ": 1146,
  "ڳ": 1147,
  "ڷ": 1148,
  "ڹ": 1149,
  "ں": 1150,
  "ڻ": 1151,
  "ھ": 1152,
  "ہ": 1153,
  "ۃ": 1154,
  "ۆ": 1155,
  "ۇ": 1156,
  "ۋ": 1157,
  "ی": 1158,
  "ێ": 1159,
  "ې": 1160,
  "ے": 1161,
  "۔": 1162,
  "ە": 1163,
  "ۖ": 1164,
  "ۗ": 1165,
  "ۙ": 1166,
  "ۚ": 1167,
  "۝": 1168,
  "ۡ": 1169,
  "ۢ": 1170,
  "ۤ": 1171,
  "۪": 1172,
  "۫": 1173,
  "۬": 1174,
  "ۭ": 1175,
  "۰": 1176,
  "۱": 1177,
  "۲": 1178,
  "۳": 1179,
  "۴": 1180,
  "۵": 1181,
  "۶": 1182,
  "۸": 1183,
  "۽": 1184,
  "ܐ": 1185,
  "ܒ": 1186,
  "ܕ": 1187,
  "ܘ": 1188,
  "ܚ": 1189,
  "ܝ": 1190,
  "ܠ": 1191,
  "ܡ": 1192,
  "ܢ": 1193,
  "ܣ": 1194,
  "ܥ": 1195,
  "ܦ": 1196,
  "ܩ": 1197,
  "ܪ": 1198,
  "ݐ": 1199,
  "ހ": 1200,
  "ށ": 1201,
  "ނ": 1202,
  "ރ": 1203,
  "ބ": 1204,
  "ކ": 1205,
  "އ": 1206,
  "ވ": 1207,
  "މ": 1208,
  "ފ": 1209,
  "ދ": 1210,
  "ލ": 1211,
  "ގ": 1212,
  "ޑ": 1213,
  "ޓ": 1214,
  "ޖ": 1215,
  "ޝ": 1216,
  "ަ": 1217,
  "ާ": 1218,
  "ި": 1219,
  "ީ": 1220,
  "ު": 1221,
  "ޫ": 1222,
  "ެ": 1223,
  "ޭ": 1224,
  "ޯ": 1225,
  "ް": 1226,
  "ँ": 1227,
  "ं": 1228,
  "ः": 1229,
  "अ": 1230,
  "आ": 1231,
  "इ": 1232,
  "ई": 1233,
  "उ": 1234,
  "ऊ": 1235,
  "ऋ": 1236,
  "ए": 1237,
  "ऐ": 1238,
  "ऑ": 1239,
  "ओ": 1240,
  "औ": 1241,
  "क": 1242,
  "ख": 1243,
  "ग": 1244,
  "घ": 1245,
  "ङ": 1246,
  "च": 1247,
  "छ": 1248,
  "ज": 1249,
  "झ": 1250,
  "ञ": 1251,
  "ट": 1252,
  "ठ": 1253,
  "ड": 1254,
  "ढ": 1255,
  "ण": 1256,
  "त": 1257,
  "थ": 1258,
  "द": 1259,
  "ध": 1260,
  "न": 1261,
  "प": 1262,
  "फ": 1263,
  "ब": 1264,
  "भ": 1265,
  "म": 1266,
  "य": 1267,
  "र": 1268,
  "ल": 1269,
  "ळ": 1270,
  "व": 1271,
  "श": 1272,
  "ष": 1273,
  "स": 1274,
  "ह": 1275,
  "़": 1276,
  "ा": 1277,
  "ि": 1278,
  "ी": 1279,
  "ु": 1280,
  "ू": 1281,
  "ृ": 1282,
  "े": 1283,
  "ै": 1284,
  "ॉ": 1285,
  "ो": 1286,
  "ौ": 1287,
  "्": 1288,
  "ॐ": 1289,
  "ॢ": 1290,
  "ॣ": 1291,
  "।": 1292,
  "॥": 1293,
  "०": 1294,
  "१": 1295,
  "२": 1296,
  "३": 1297,
  "४": 1298,
  "५": 1299,
  "६": 1300,
  "८": 1301,
  "९": 1302,
  "॰": 1303,
  "ঀ": 1304,
  "ঁ": 1305,
  "ঁচ": 1306,
  "ঁদ": 1307,
  "ঁয়": 1308,
  "ং": 1309,
  "ং,": 1310,
  "ংক": 1311,
  "ংকং": 1312,
  "ংকর": 1313,
  "ংকার": 1314,
  "ংখ্যান": 1315,
  "ংগ": 1316,
  "ংয়ের": 1317,
  "ংরে": 1318,
  "ংল": 1319,
  "ংশ": 1320,
  "ংস": 1321,
  "ংসা": 1322,
  "ংসের": 1323,
  "ঃ": 1324,
  "ঃ)": 1325,
  "ঃপর": 1326,
  "঄": 1327,
  "অ": 1328,
  "আ": 1329,
  "আই": 1330,
  "আই)": 1331,
  "আইটি": 1332,
  "আউট": 1333,
  "আন": 1334,
  "আর": 1335,
  "ই": 1336,
  "ই,": 1337,
  "ইং": 1338,
  "ইই": 1339,
  "ইউ": 1340,
  "ইন": 1341,
  "ইয়": 1342,
  "ইয়া": 1343,
  "ইল": 1344,
  "ঈ": 1345,
  "উ": 1346,
  "উই": 1347,
  "উইক": 1348,
  "উইন": 1349,
  "উট": 1350,
  "উড": 1351,
  "উদ্দ": 1352,
  "উদ্দিন": 1353,
  "উন্ড": 1354,
  "উর": 1355,
  "উল": 1356,
  "উল্লাহ": 1357,
  "ঊ": 1358,
  "ঋ": 1359,
  "ঌ": 1360,
  "঍": 1361,
  "঎": 1362,
  "এ": 1363,
  "এ)": 1364,
  "এই": 1365,
  "এইচ": 1366,
  "এক্স": 1367,
  "এন": 1368,
  "এনএ": 1369,
  "এফ": 1370,
  "এফসি": 1371,
  "এম": 1372,
  "এর": 1373,
  "এল": 1374,
  "এস": 1375,
  "এস)": 1376,
  "এস.": 1377,
  "এসপি": 1378,
  "এসসি": 1379,
  "ঐ": 1380,
  "঑": 1381,
  "঒": 1382,
  "ও": 1383,
  "ও,": 1384,
  "ও।": 1385,
  "ওয়": 1386,
  "ওয়া": 1387,
  "ওয়াই": 1388,
  "ওয়াট": 1389,
  "ওয়ান": 1390,
  "ওয়ায়": 1391,
  "ওয়ার": 1392,
  "ওয়ার্ড": 1393,
  "ওয়াল": 1394,
  "ওয়ালা": 1395,
  "ওয়ে": 1396,
  "ওয়ের": 1397,
  "ওয়েল": 1398,
  "ওয়্যার": 1399,
  "ওর": 1400,
  "ওল": 1401,
  "ওলানা": 1402,
  "ঔ": 1403,
  "ক": 1404,
  "ক)": 1405,
  "ক,": 1406,
  "ক।": 1407,
  "ককে": 1408,
  "কট": 1409,
  "কটি": 1410,
  "কত": 1411,
  "কতা": 1412,
  "কথ": 1413,
  "কদের": 1414,
  "কন": 1415,
  "কম": 1416,
  "কর": 1417,
  "করণ": 1418,
  "করণের": 1419,
  "করা": 1420,
  "কর্ত": 1421,
  "কর্ম": 1422,
  "কর্মী": 1423,
  "কল": 1424,
  "কলা": 1425,
  "কল্প": 1426,
  "কা": 1427,
  "কাজ": 1428,
  "কাঠ": 1429,
  "কান": 1430,
  "কাপ": 1431,
  "কাম": 1432,
  "কায়": 1433,
  "কার": 1434,
  "কারক": 1435,
  "কারি": 1436,
  "কারী": 1437,
  "কারীদের": 1438,
  "কারীর": 1439,
  "কারীরা": 1440,
  "কারে": 1441,
  "কারের": 1442,
  "কার্য": 1443,
  "কাল": 1444,
  "কালীন": 1445,
  "কালে": 1446,
  "কালের": 1447,
  "কাশ": 1448,
  "কাস": 1449,
  "কাহ": 1450,
  "কাহিনী": 1451,
  "কি": 1452,
  "কিছু": 1453,
  "কিন": 1454,
  "কির": 1455,
  "কিল": 1456,
  "কী": 1457,
  "কীয়": 1458,
  "কু": 1459,
  "কুড়া": 1460,
  "কুম": 1461,
  "কুমার": 1462,
  "কুল": 1463,
  "কৃত": 1464,
  "কৃষ্ণ": 1465,
  "কে": 1466,
  "কে,": 1467,
  "কে।": 1468,
  "কেই": 1469,
  "কেও": 1470,
  "কেট": 1471,
  "কেত": 1472,
  "কেন্দ্র": 1473,
  "কের": 1474,
  "কেরা": 1475,
  "কেল": 1476,
  "কেশ": 1477,
  "কো": 1478,
  "কোট": 1479,
  "কোন": 1480,
  "কোর্ট": 1481,
  "কোষ": 1482,
  "ক্ক": 1483,
  "ক্ত": 1484,
  "ক্তি": 1485,
  "ক্তিক": 1486,
  "ক্তির": 1487,
  "ক্য": 1488,
  "ক্যের": 1489,
  "ক্র": 1490,
  "ক্রম": 1491,
  "ক্রমে": 1492,
  "ক্রান্ত": 1493,
  "ক্রিয়": 1494,
  "ক্ল": 1495,
  "ক্ষ": 1496,
  "ক্ষণ": 1497,
  "ক্ষম": 1498,
  "ক্ষমতা": 1499,
  "ক্ষরিক": 1500,
  "ক্ষা": 1501,
  "ক্ষাংশ": 1502,
  "ক্ষার": 1503,
  "ক্ষিণ": 1504,
  "ক্ষিত": 1505,
  "ক্ষিপ্ত": 1506,
  "ক্ষে": 1507,
  "ক্ষেত্র": 1508,
  "ক্ষেত্রে": 1509,
  "ক্ষেপ": 1510,
  "ক্ষ্ম": 1511,
  "ক্স": 1512,
  "খ": 1513,
  "খণ্ড": 1514,
  "খত": 1515,
  "খন": 1516,
  "খর": 1517,
  "খল": 1518,
  "খা": 1519,
  "খান": 1520,
  "খানা": 1521,
  "খানে": 1522,
  "খার": 1523,
  "খালী": 1524,
  "খিক": 1525,
  "খ্য": 1526,
  "খ্যা": 1527,
  "খ্যাত": 1528,
  "খ্যান": 1529,
  "খ্যার": 1530,
  "গ": 1531,
  "গঞ্জ": 1532,
  "গঠ": 1533,
  "গড়": 1534,
  "গণ": 1535,
  "গণিত": 1536,
  "গণের": 1537,
  "গত": 1538,
  "গতভাবে": 1539,
  "গতি": 1540,
  "গতির": 1541,
  "গতের": 1542,
  "গন": 1543,
  "গম": 1544,
  "গর": 1545,
  "গরের": 1546,
  "গর্ভ": 1547,
  "গল": 1548,
  "গল্প": 1549,
  "গা": 1550,
  "গাঁ": 1551,
  "গাঁও": 1552,
  "গাছ": 1553,
  "গান": 1554,
  "গাম": 1555,
  "গামী": 1556,
  "গার": 1557,
  "গাহ": 1558,
  "গি": 1559,
  "গিত": 1560,
  "গির": 1561,
  "গীর": 1562,
  "গু": 1563,
  "গুপ্ত": 1564,
  "গুল": 1565,
  "গুলি": 1566,
  "গুলিকে": 1567,
  "গুলিতে": 1568,
  "গুলির": 1569,
  "গুলো": 1570,
  "গুলোকে": 1571,
  "গুলোতে": 1572,
  "গুলোর": 1573,
  "গে": 1574,
  "গেজ": 1575,
  "গের": 1576,
  "গো": 1577,
  "গোল": 1578,
  "গ্ধ": 1579,
  "গ্ন": 1580,
  "গ্র": 1581,
  "গ্রন্থ": 1582,
  "গ্রস্ত": 1583,
  "গ্রহ": 1584,
  "গ্রহণ": 1585,
  "গ্রাফ": 1586,
  "গ্রাম": 1587,
  "গ্রাহ": 1588,
  "গ্রাহক": 1589,
  "গ্রেড": 1590,
  "গ্রেস": 1591,
  "ঘ": 1592,
  "ঘট": 1593,
  "ঘর": 1594,
  "ঘল": 1595,
  "ঘাট": 1596,
  "ঘাত": 1597,
  "ঘু": 1598,
  "ঘ্র": 1599,
  "ঙ": 1600,
  "ঙে": 1601,
  "ঙ্": 1602,
  "ঙ্ক": 1603,
  "ঙ্কর": 1604,
  "ঙ্কা": 1605,
  "ঙ্কার": 1606,
  "ঙ্কের": 1607,
  "ঙ্খ": 1608,
  "ঙ্গ": 1609,
  "ঙ্গল": 1610,
  "ঙ্গা": 1611,
  "ঙ্গার": 1612,
  "ঙ্গাল": 1613,
  "ঙ্গিক": 1614,
  "ঙ্গু": 1615,
  "ঙ্গে": 1616,
  "ঙ্গের": 1617,
  "ঙ্ঘ": 1618,
  "চ": 1619,
  "চক": 1620,
  "চক্র": 1621,
  "চন": 1622,
  "চন্দ্র": 1623,
  "চর": 1624,
  "চল": 1625,
  "চা": 1626,
  "চাঁ": 1627,
  "চার": 1628,
  "চারাল": 1629,
  "চারী": 1630,
  "চারের": 1631,
  "চি": 1632,
  "চিত্র": 1633,
  "চিব": 1634,
  "চে": 1635,
  "চেঞ্জ": 1636,
  "চেয়ে": 1637,
  "চের": 1638,
  "চেল": 1639,
  "চেস্টার": 1640,
  "চৌ": 1641,
  "চ্": 1642,
  "চ্চ": 1643,
  "চ্চিত্র": 1644,
  "চ্ছ": 1645,
  "চ্ছিন্ন": 1646,
  "চ্ছে": 1647,
  "চ্ছেদ": 1648,
  "চ্যুত": 1649,
  "ছ": 1650,
  "ছড়ি": 1651,
  "ছা": 1652,
  "ছাড়া": 1653,
  "ছি": 1654,
  "ছি।": 1655,
  "ছিল": 1656,
  "ছিল,": 1657,
  "ছিল।": 1658,
  "ছিলেন": 1659,
  "ছিলেন,": 1660,
  "ছিলেন।": 1661,
  "ছু": 1662,
  "ছে": 1663,
  "ছে,": 1664,
  "ছে।": 1665,
  "ছেন": 1666,
  "ছেন,": 1667,
  "ছেন।": 1668,
  "জ": 1669,
  "জ,": 1670,
  "জন": 1671,
  "জনক": 1672,
  "জনিত": 1673,
  "জনীন": 1674,
  "জনের": 1675,
  "জন্য": 1676,
  "জম": 1677,
  "জয়": 1678,
  "জল": 1679,
  "জা": 1680,
  "জাত": 1681,
  "জাতীয়": 1682,
  "জান": 1683,
  "জার": 1684,
  "জাল": 1685,
  "জাহ": 1686,
  "জি": 1687,
  "জিং": 1688,
  "জিত": 1689,
  "জিদ": 1690,
  "জিদের": 1691,
  "জিন": 1692,
  "জির": 1693,
  "জিৎ": 1694,
  "জী": 1695,
  "জীব": 1696,
  "জীবন": 1697,
  "জীবনী": 1698,
  "জীবী": 1699,
  "জু": 1700,
  "জুড়ে": 1701,
  "জে": 1702,
  "জেন": 1703,
  "জের": 1704,
  "জেল": 1705,
  "জ্জ": 1706,
  "জ্জন": 1707,
  "জ্জিত": 1708,
  "জ্ঞ": 1709,
  "জ্ঞান": 1710,
  "জ্ঞানিক": 1711,
  "ঝ": 1712,
  "ঝি": 1713,
  "ঞ": 1714,
  "ঞ্চ": 1715,
  "ঞ্চল": 1716,
  "ঞ্চলিক": 1717,
  "ঞ্জ": 1718,
  "ঞ্জন": 1719,
  "ঞ্জস্য": 1720,
  "ঞ্জাম": 1721,
  "ঞ্জার": 1722,
  "ঞ্জেল": 1723,
  "ট": 1724,
  "ট,": 1725,
  "টন": 1726,
  "টনের": 1727,
  "টপ": 1728,
  "টর": 1729,
  "টা": 1730,
  "টাই": 1731,
  "টাইম": 1732,
  "টার": 1733,
  "টি": 1734,
  "টি,": 1735,
  "টি।": 1736,
  "টিং": 1737,
  "টিই": 1738,
  "টিউ": 1739,
  "টিউট": 1740,
  "টিও": 1741,
  "টিক": 1742,
  "টিকে": 1743,
  "টিক্যাল": 1744,
  "টিত": 1745,
  "টিতে": 1746,
  "টিন": 1747,
  "টিফ": 1748,
  "টিভ": 1749,
  "টিভি": 1750,
  "টিয়": 1751,
  "টিয়া": 1752,
  "টিয়ে": 1753,
  "টির": 1754,
  "টিরও": 1755,
  "টিল": 1756,
  "টিশ": 1757,
  "টিস": 1758,
  "টিসি": 1759,
  "টিস্ট": 1760,
  "টু": 1761,
  "টে": 1762,
  "টেইন": 1763,
  "টেইনমেন্ট": 1764,
  "টেন": 1765,
  "টেম": 1766,
  "টের": 1767,
  "টো": 1768,
  "ট্ট": 1769,
  "ট্র": 1770,
  "ট্রিক": 1771,
  "ট্র্যাক": 1772,
  "ঠ": 1773,
  "ঠন": 1774,
  "ঠা": 1775,
  "ঠি": 1776,
  "ঠে": 1777,
  "ঠের": 1778,
  "ড": 1779,
  "ডব্লিউ": 1780,
  "ডস": 1781,
  "ড়": 1782,
  "ড়া": 1783,
  "ড়া,": 1784,
  "ড়াই": 1785,
  "ড়ায়": 1786,
  "ড়ার": 1787,
  "ড়ি": 1788,
  "ড়িয়া": 1789,
  "ড়িয়ে": 1790,
  "ড়ির": 1791,
  "ড়ে": 1792,
  "ড়ের": 1793,
  "ডাঙ্গা": 1794,
  "ডাব্লিউ": 1795,
  "ডার": 1796,
  "ডি": 1797,
  "ডিআই": 1798,
  "ডে": 1799,
  "ডেন": 1800,
  "ডের": 1801,
  "ডো": 1802,
  "ডোর": 1803,
  "ড্র": 1804,
  "ঢ": 1805,
  "ঢ়": 1806,
  "ণ": 1807,
  "ণ,": 1808,
  "ণা": 1809,
  "ণি": 1810,
  "ণিক": 1811,
  "ণী": 1812,
  "ণে": 1813,
  "ণের": 1814,
  "ণ্ঠ": 1815,
  "ণ্ড": 1816,
  "ণ্ডল": 1817,
  "ণ্ডিত": 1818,
  "ণ্য": 1819,
  "ত": 1820,
  "ত,": 1821,
  "ত।": 1822,
  "তঃ": 1823,
  "তত্ত্ব": 1824,
  "তন": 1825,
  "তন্ত্র": 1826,
  "তন্ত্রের": 1827,
  "তপুর": 1828,
  "তম": 1829,
  "তর": 1830,
  "তল": 1831,
  "তলা": 1832,
  "তলি": 1833,
  "তলী": 1834,
  "তা": 1835,
  "তা,": 1836,
  "তা।": 1837,
  "তাই": 1838,
  "তাকে": 1839,
  "তাত্ত্বিক": 1840,
  "তাদের": 1841,
  "তান": 1842,
  "তান্ত্রিক": 1843,
  "তাব": 1844,
  "তাবাদ": 1845,
  "তাবাদী": 1846,
  "তাম": 1847,
  "তামূলক": 1848,
  "তায়": 1849,
  "তার": 1850,
  "তারা": 1851,
  "তাল": 1852,
  "তাস": 1853,
  "তি": 1854,
  "তি,": 1855,
  "তিক": 1856,
  "তিক্রম": 1857,
  "তিতে": 1858,
  "তিত্ব": 1859,
  "তিনিধ": 1860,
  "তিনিধি": 1861,
  "তিব": 1862,
  "তিবাচক": 1863,
  "তিম": 1864,
  "তির": 1865,
  "তিহ": 1866,
  "তিহাস": 1867,
  "তী": 1868,
  "তীত": 1869,
  "তীর": 1870,
  "তীর্ণ": 1871,
  "তু": 1872,
  "তুক": 1873,
  "তুন": 1874,
  "তুর": 1875,
  "তুল": 1876,
  "তে": 1877,
  "তে,": 1878,
  "তেন": 1879,
  "তেন।": 1880,
  "তের": 1881,
  "তো": 1882,
  "তো।": 1883,
  "ত্ত": 1884,
  "ত্তন": 1885,
  "ত্তম": 1886,
  "ত্তর": 1887,
  "ত্তা": 1888,
  "ত্তার": 1889,
  "ত্তি": 1890,
  "ত্তির": 1891,
  "ত্ত্ব": 1892,
  "ত্ত্বেও": 1893,
  "ত্ন": 1894,
  "ত্ব": 1895,
  "ত্বের": 1896,
  "ত্য": 1897,
  "ত্যা": 1898,
  "ত্যাগ": 1899,
  "ত্র": 1900,
  "ত্রিম": 1901,
  "ত্রের": 1902,
  "থ": 1903,
  "থম": 1904,
  "থমিক": 1905,
  "থা": 1906,
  "থায়": 1907,
  "থার": 1908,
  "থি": 1909,
  "থিক": 1910,
  "থে": 1911,
  "থের": 1912,
  "থ্য": 1913,
  "দ": 1914,
  "দণ্ড": 1915,
  "দন": 1916,
  "দন্ত": 1917,
  "দম": 1918,
  "দর": 1919,
  "দর্শ": 1920,
  "দর্শন": 1921,
  "দল": 1922,
  "দশ": 1923,
  "দস্য": 1924,
  "দহ": 1925,
  "দা": 1926,
  "দাতা": 1927,
  "দাদ": 1928,
  "দান": 1929,
  "দানি": 1930,
  "দানের": 1931,
  "দার": 1932,
  "দারি": 1933,
  "দাস": 1934,
  "দি": 1935,
  "দিক": 1936,
  "দিকে": 1937,
  "দিত": 1938,
  "দিন": 1939,
  "দিনের": 1940,
  "দিয়া": 1941,
  "দী": 1942,
  "দু": 1943,
  "দুল": 1944,
  "দূত": 1945,
  "দে": 1946,
  "দেব": 1947,
  "দের": 1948,
  "দেরকে": 1949,
  "দেশ": 1950,
  "দেশিক": 1951,
  "দেশে": 1952,
  "দেশের": 1953,
  "দেহ": 1954,
  "দৈ": 1955,
  "দৈর্ঘ্য": 1956,
  "দ্": 1957,
  "দ্দ": 1958,
  "দ্দিন": 1959,
  "দ্ধ": 1960,
  "দ্ব": 1961,
  "দ্বার": 1962,
  "দ্বীপ": 1963,
  "দ্বীপের": 1964,
  "দ্ম": 1965,
  "দ্য": 1966,
  "দ্র": 1967,
  "ধ": 1968,
  "ধন": 1969,
  "ধর": 1970,
  "ধরনের": 1971,
  "ধর্ম": 1972,
  "ধর্মী": 1973,
  "ধর্মের": 1974,
  "ধা": 1975,
  "ধান": 1976,
  "ধানে": 1977,
  "ধার": 1978,
  "ধারণ": 1979,
  "ধারা": 1980,
  "ধারার": 1981,
  "ধারী": 1982,
  "ধি": 1983,
  "ধিক": 1984,
  "ধীন": 1985,
  "ধুনিক": 1986,
  "ধুর": 1987,
  "ধে": 1988,
  "ধ্ব": 1989,
  "ধ্য": 1990,
  "ধ্যাত্ম": 1991,
  "ধ্যে": 1992,
  "ধ্যে,": 1993,
  "ন": 1994,
  "ন,": 1995,
  "ন।": 1996,
  "নং": 1997,
  "নকে": 1998,
  "নগর": 1999,
  "নন্দ": 2000,
  "নশীল": 2001,
  "না": 2002,
  "না,": 2003,
  "না।": 2004,
  "নাকারী": 2005,
  "নাকে": 2006,
  "নাক্ত": 2007,
  "নাগ": 2008,
  "নাট": 2009,
  "নাট্য": 2010,
  "নাড়": 2011,
  "নাত": 2012,
  "নাথ": 2013,
  "নাম": 2014,
  "নামা": 2015,
  "নামূলক": 2016,
  "নায়": 2017,
  "নার": 2018,
  "নাল": 2019,
  "নি": 2020,
  "নি,": 2021,
  "নি।": 2022,
  "নিক": 2023,
  "নিখ": 2024,
  "নিটি": 2025,
  "নিম": 2026,
  "নিম্ন": 2027,
  "নির": 2028,
  "নিরপেক্ষ": 2029,
  "নিষ্ঠ": 2030,
  "নিস": 2031,
  "নী": 2032,
  "নীত": 2033,
  "নীতি": 2034,
  "নীতিতে": 2035,
  "নীয়": 2036,
  "নু": 2037,
  "নে": 2038,
  "নে।": 2039,
  "নেট": 2040,
  "নের": 2041,
  "নেস": 2042,
  "নৈতিক": 2043,
  "নো": 2044,
  "নোল": 2045,
  "ন্": 2046,
  "ন্ট": 2047,
  "ন্টি": 2048,
  "ন্টির": 2049,
  "ন্ঠ": 2050,
  "ন্ড": 2051,
  "ন্ডা": 2052,
  "ন্ডার": 2053,
  "ন্ত": 2054,
  "ন্তব্য": 2055,
  "ন্তী": 2056,
  "ন্তু": 2057,
  "ন্তু,": 2058,
  "ন্ত্র": 2059,
  "ন্ত্রণ": 2060,
  "ন্ত্রিত": 2061,
  "ন্ত্রী": 2062,
  "ন্থ": 2063,
  "ন্থে": 2064,
  "ন্দ": 2065,
  "ন্দন": 2066,
  "ন্দর": 2067,
  "ন্দা": 2068,
  "ন্দাজ": 2069,
  "ন্দির": 2070,
  "ন্দের": 2071,
  "ন্দ্ব": 2072,
  "ন্দ্র": 2073,
  "ন্ধ": 2074,
  "ন্ধন": 2075,
  "ন্ধান": 2076,
  "ন্ন": 2077,
  "ন্নাথ": 2078,
  "ন্নি": 2079,
  "ন্ব": 2080,
  "ন্ম": 2081,
  "ন্য": 2082,
  "ন্স": 2083,
  "ন্সের": 2084,
  "঩": 2085,
  "প": 2086,
  "পক্ষ": 2087,
  "পক্ষে": 2088,
  "পঞ্জ": 2089,
  "পঞ্জি": 2090,
  "পণ": 2091,
  "পতি": 2092,
  "পতির": 2093,
  "পত্র": 2094,
  "পথ": 2095,
  "পথে": 2096,
  "পদ": 2097,
  "পদক": 2098,
  "পন": 2099,
  "পন্থ": 2100,
  "পন্থী": 2101,
  "পমেন্ট": 2102,
  "পর": 2103,
  "পরি": 2104,
  "পরিব": 2105,
  "পরে": 2106,
  "পর্য": 2107,
  "পর্যন্ত": 2108,
  "পা": 2109,
  "পাই": 2110,
  "পাইন": 2111,
  "পাড়া": 2112,
  "পাত": 2113,
  "পাতের": 2114,
  "পাদ": 2115,
  "পার": 2116,
  "পাল": 2117,
  "পি": 2118,
  "পি)": 2119,
  "পির": 2120,
  "পু": 2121,
  "পুঞ্জ": 2122,
  "পুট": 2123,
  "পুত": 2124,
  "পুত্র": 2125,
  "পুর": 2126,
  "পুর,": 2127,
  "পুরুষ": 2128,
  "পুরে": 2129,
  "পুরের": 2130,
  "পূ": 2131,
  "পূর্ণ": 2132,
  "পূর্ব": 2133,
  "পূর্বক": 2134,
  "পূর্বে": 2135,
  "পৃষ্ঠ": 2136,
  "পে": 2137,
  "পেক্ষ": 2138,
  "পের": 2139,
  "পো": 2140,
  "পোর্ট": 2141,
  "পোষ": 2142,
  "প্ট": 2143,
  "প্টেম্বর": 2144,
  "প্ত": 2145,
  "প্তর": 2146,
  "প্প": 2147,
  "প্র": 2148,
  "প্রকাশ": 2149,
  "প্রজাত": 2150,
  "প্রজাতন্ত্রী": 2151,
  "প্রণ": 2152,
  "প্রতি": 2153,
  "প্রথম": 2154,
  "প্রদেশ": 2155,
  "প্রদেশের": 2156,
  "প্রধান": 2157,
  "প্রবাহ": 2158,
  "প্রসাদ": 2159,
  "প্রাচ": 2160,
  "প্রাপ্ত": 2161,
  "প্রিল": 2162,
  "প্রেক্ষ": 2163,
  "প্রেস": 2164,
  "প্ল": 2165,
  "প্লে": 2166,
  "ফ": 2167,
  "ফর": 2168,
  "ফর্ম": 2169,
  "ফল": 2170,
  "ফলের": 2171,
  "ফা": 2172,
  "ফার": 2173,
  "ফি": 2174,
  "ফিক": 2175,
  "ফিন": 2176,
  "ফিল্ড": 2177,
  "ফু": 2178,
  "ফুট": 2179,
  "ফুল": 2180,
  "ফে": 2181,
  "ফেন": 2182,
  "ফেয়ার": 2183,
  "ফের": 2184,
  "ফেল": 2185,
  "ফেস": 2186,
  "ফোন": 2187,
  "ফোর": 2188,
  "ফোর্ড": 2189,
  "ফ্র": 2190,
  "ফ্রন্ট": 2191,
  "ফ্ল": 2192,
  "ব": 2193,
  "ব,": 2194,
  "বং": 2195,
  "বংশ": 2196,
  "বঙ্গ": 2197,
  "বছ": 2198,
  "বছর": 2199,
  "বণ": 2200,
  "বত": 2201,
  "বতী": 2202,
  "বদন্ত": 2203,
  "বদ্ধ": 2204,
  "বন": 2205,
  "বনে": 2206,
  "বন্দ": 2207,
  "বন্ধ": 2208,
  "বন্ধু": 2209,
  "বয়": 2210,
  "বয়স্ক": 2211,
  "বর": 2212,
  "বরণ": 2213,
  "বরাহ": 2214,
  "বরের": 2215,
  "বর্ণ": 2216,
  "বর্ত": 2217,
  "বর্তমান": 2218,
  "বর্তী": 2219,
  "বর্ষ": 2220,
  "বল": 2221,
  "বস": 2222,
  "বস্ত": 2223,
  "বস্তু": 2224,
  "বহ": 2225,
  "বহুল": 2226,
  "বা": 2227,
  "বাংল": 2228,
  "বাংলা": 2229,
  "বাংলাদেশ": 2230,
  "বাই": 2231,
  "বাক": 2232,
  "বাগ": 2233,
  "বাজ": 2234,
  "বাজার": 2235,
  "বাড়": 2236,
  "বাড়ি": 2237,
  "বাড়িয়া": 2238,
  "বাড়ী": 2239,
  "বাদ": 2240,
  "বাদিক": 2241,
  "বাদী": 2242,
  "বাদের": 2243,
  "বান": 2244,
  "বাব": 2245,
  "বায়": 2246,
  "বার": 2247,
  "বারে": 2248,
  "বারের": 2249,
  "বার্": 2250,
  "বার্গ": 2251,
  "বার্ট": 2252,
  "বাল": 2253,
  "বাস": 2254,
  "বাসী": 2255,
  "বাহ": 2256,
  "বাহিত": 2257,
  "বাহিনী": 2258,
  "বাহিনীর": 2259,
  "বাহী": 2260,
  "বি": 2261,
  "বিংশ": 2262,
  "বিক": 2263,
  "বিজ্ঞ": 2264,
  "বিজ্ঞান": 2265,
  "বিজ্ঞানী": 2266,
  "বিজ্ঞানে": 2267,
  "বিজ্ঞানের": 2268,
  "বিটি": 2269,
  "বিতে": 2270,
  "বিত্র": 2271,
  "বিদ": 2272,
  "বিদ্যা": 2273,
  "বিদ্যার": 2274,
  "বিধ": 2275,
  "বিধা": 2276,
  "বিধান": 2277,
  "বিধানিক": 2278,
  "বিন": 2279,
  "বিন্দ": 2280,
  "বিভাগ": 2281,
  "বির": 2282,
  "বিরোধী": 2283,
  "বিল": 2284,
  "বিশিষ্ট": 2285,
  "বিশেষ": 2286,
  "বিষ": 2287,
  "বিষ্য": 2288,
  "বিহার": 2289,
  "বিহীন": 2290,
  "বী": 2291,
  "বীণ": 2292,
  "বীন্দ্র": 2293,
  "বীর": 2294,
  "বু": 2295,
  "বুক": 2296,
  "বুব": 2297,
  "বুল": 2298,
  "বৃ": 2299,
  "বৃত্ত": 2300,
  "বৃহ": 2301,
  "বে": 2302,
  "বে।": 2303,
  "বেক": 2304,
  "বেগ": 2305,
  "বেদ": 2306,
  "বেদন": 2307,
  "বেন": 2308,
  "বেন।": 2309,
  "বের": 2310,
  "বেল": 2311,
  "বেশ": 2312,
  "বৈ": 2313,
  "বো": 2314,
  "বোধ": 2315,
  "ব্দ": 2316,
  "ব্ধ": 2317,
  "ব্ব": 2318,
  "ব্য": 2319,
  "ব্যব": 2320,
  "ব্যাক": 2321,
  "ব্যাপী": 2322,
  "ব্যের": 2323,
  "ব্র": 2324,
  "ব্রিজ": 2325,
  "ব্লিউ": 2326,
  "ভ": 2327,
  "ভক্ত": 2328,
  "ভঙ্গ": 2329,
  "ভব": 2330,
  "ভবন": 2331,
  "ভা": 2332,
  "ভাই": 2333,
  "ভাগ": 2334,
  "ভাগে": 2335,
  "ভাগের": 2336,
  "ভান": 2337,
  "ভাব": 2338,
  "ভাবে": 2339,
  "ভাবে,": 2340,
  "ভাবেই": 2341,
  "ভায়": 2342,
  "ভার": 2343,
  "ভারত": 2344,
  "ভারতীয়": 2345,
  "ভার্স": 2346,
  "ভাল": 2347,
  "ভাষ": 2348,
  "ভাষা": 2349,
  "ভি": 2350,
  "ভিত্তিক": 2351,
  "ভিদের": 2352,
  "ভিন": 2353,
  "ভিল": 2354,
  "ভিষ": 2355,
  "ভিষিক্ত": 2356,
  "ভীর": 2357,
  "ভুক্ত": 2358,
  "ভুত": 2359,
  "ভূ": 2360,
  "ভূত": 2361,
  "ভূম": 2362,
  "ভূমি": 2363,
  "ভূমিতে": 2364,
  "ভূমির": 2365,
  "ভূষণ": 2366,
  "ভে": 2367,
  "ভেদ": 2368,
  "ভেন": 2369,
  "ভের": 2370,
  "ভেল": 2371,
  "ভোগ": 2372,
  "ভৌ": 2373,
  "ম": 2374,
  "ম,": 2375,
  "মণ্ড": 2376,
  "মত": 2377,
  "মন": 2378,
  "মনের": 2379,
  "মন্ড": 2380,
  "মন্ত্র": 2381,
  "মন্ত্রী": 2382,
  "ময়": 2383,
  "মর্য": 2384,
  "মশ": 2385,
  "মশুম": 2386,
  "মহ": 2387,
  "মহাদেশ": 2388,
  "মা": 2389,
  "মাইল": 2390,
  "মাণ": 2391,
  "মাণবিক": 2392,
  "মাত্র": 2393,
  "মাধ্য": 2394,
  "মান": 2395,
  "মানিক": 2396,
  "মানের": 2397,
  "মান্ড": 2398,
  "মাব": 2399,
  "মাবদ্ধ": 2400,
  "মার": 2401,
  "মারের": 2402,
  "মার্ক": 2403,
  "মাল": 2404,
  "মালা": 2405,
  "মাস": 2406,
  "মি": 2407,
  "মিক": 2408,
  "মিটার": 2409,
  "মিত": 2410,
  "মিথ": 2411,
  "মিন": 2412,
  "মির": 2413,
  "মিল": 2414,
  "মিশ": 2415,
  "মিশ্র": 2416,
  "মী": 2417,
  "মু": 2418,
  "মুক্ত": 2419,
  "মুখ": 2420,
  "মুখী": 2421,
  "মূর্ত": 2422,
  "মূল": 2423,
  "মূলক": 2424,
  "মে": 2425,
  "মেট": 2426,
  "মেন": 2427,
  "মেন্ট": 2428,
  "মেয়": 2429,
  "মের": 2430,
  "মোট": 2431,
  "মোন": 2432,
  "মোহ": 2433,
  "মোহন": 2434,
  "ম্": 2435,
  "ম্প": 2436,
  "ম্পন্ন": 2437,
  "ম্ব": 2438,
  "ম্বুজ": 2439,
  "ম্ভ": 2440,
  "ম্ম": 2441,
  "ম্মদ": 2442,
  "ম্যান": 2443,
  "ম্যানের": 2444,
  "ম্যান্স": 2445,
  "য": 2446,
  "যথ": 2447,
  "যন্ত্র": 2448,
  "য়": 2449,
  "য়।": 2450,
  "য়ং": 2451,
  "য়দ": 2452,
  "য়ন": 2453,
  "য়নে": 2454,
  "য়নের": 2455,
  "য়া": 2456,
  "য়ান": 2457,
  "য়ার": 2458,
  "য়ারের": 2459,
  "য়াল": 2460,
  "য়িক": 2461,
  "য়ী": 2462,
  "য়ে": 2463,
  "য়েই": 2464,
  "য়েক": 2465,
  "য়েজ": 2466,
  "য়েট": 2467,
  "য়েড": 2468,
  "য়ের": 2469,
  "য়েল": 2470,
  "য়েশ": 2471,
  "য়েস": 2472,
  "যা": 2473,
  "যাত্র": 2474,
  "যান": 2475,
  "যাপন": 2476,
  "যায়ী": 2477,
  "যুক্ত": 2478,
  "যুক্ত।": 2479,
  "যুগ": 2480,
  "যুগের": 2481,
  "যুদ্ধ": 2482,
  "যুদ্ধে": 2483,
  "যুদ্ধের": 2484,
  "যোগ": 2485,
  "যোগাযোগ": 2486,
  "যোগী": 2487,
  "যোগ্য": 2488,
  "যোজ": 2489,
  "যোজন": 2490,
  "যোজিত": 2491,
  "যোদ্ধ": 2492,
  "য্য": 2493,
  "র": 2494,
  "র,": 2495,
  "র।": 2496,
  "রক": 2497,
  "রক্ষ": 2498,
  "রক্ষক": 2499,
  "রক্ষণ": 2500,
  "রক্ষিত": 2501,
  "রঙ্গ": 2502,
  "রচ": 2503,
  "রণ": 2504,
  "রণের": 2505,
  "রত": 2506,
  "রন": 2507,
  "রব": 2508,
  "রম": 2509,
  "রস": 2510,
  "রা": 2511,
  "রা,": 2512,
  "রাও": 2513,
  "রাজ": 2514,
  "রাজ্য": 2515,
  "রাট": 2516,
  "রাণিক": 2517,
  "রাধ": 2518,
  "রান": 2519,
  "রাফ": 2520,
  "রাম": 2521,
  "রায়ে": 2522,
  "রার": 2523,
  "রাষ্ট্র": 2524,
  "রাস": 2525,
  "রি": 2526,
  "রি,": 2527,
  "রিক": 2528,
  "রিক্ত": 2529,
  "রিচ": 2530,
  "রিচালক": 2531,
  "রিটি": 2532,
  "রিত": 2533,
  "রিতে": 2534,
  "রিদ": 2535,
  "রিদ্র": 2536,
  "রিন": 2537,
  "রির": 2538,
  "রিশ": 2539,
  "রিষ্ঠ": 2540,
  "রী": 2541,
  "রীণ": 2542,
  "রূপ": 2543,
  "রূপে": 2544,
  "রে": 2545,
  "রেক": 2546,
  "রেখা": 2547,
  "রের": 2548,
  "রো": 2549,
  "রোগ": 2550,
  "র্": 2551,
  "র্ক": 2552,
  "র্কিত": 2553,
  "র্কে": 2554,
  "র্কের": 2555,
  "র্গ": 2556,
  "র্গত": 2557,
  "র্ঘ": 2558,
  "র্ঘ্য": 2559,
  "র্চ": 2560,
  "র্জ": 2561,
  "র্জন": 2562,
  "র্জাত": 2563,
  "র্ট": 2564,
  "র্ড": 2565,
  "র্ডার": 2566,
  "র্ণ": 2567,
  "র্ত": 2568,
  "র্থ": 2569,
  "র্দ": 2570,
  "র্দান্ত": 2571,
  "র্দিষ্ট": 2572,
  "র্দেশ": 2573,
  "র্ধ": 2574,
  "র্ধমান": 2575,
  "র্ধ্ব": 2576,
  "র্ন": 2577,
  "র্নাম": 2578,
  "র্নি": 2579,
  "র্প": 2580,
  "র্পণ": 2581,
  "র্ব": 2582,
  "র্বর": 2583,
  "র্বল": 2584,
  "র্বাচ": 2585,
  "র্বে": 2586,
  "র্ভ": 2587,
  "র্ভূত": 2588,
  "র্ম": 2589,
  "র্মা": 2590,
  "র্মাণ": 2591,
  "র্মান": 2592,
  "র্মিত": 2593,
  "র্য": 2594,
  "র্শ": 2595,
  "র্শন": 2596,
  "র্শিদ": 2597,
  "র্ষ": 2598,
  "র্ষণ": 2599,
  "র্স": 2600,
  "঱": 2601,
  "ল": 2602,
  "ল,": 2603,
  "ল।": 2604,
  "লভ": 2605,
  "লস": 2606,
  "লা": 2607,
  "লা,": 2608,
  "লাই": 2609,
  "লাইন": 2610,
  "লাভ": 2611,
  "লাম": 2612,
  "লায়": 2613,
  "লার": 2614,
  "লাল": 2615,
  "লি": 2616,
  "লিং": 2617,
  "লিক": 2618,
  "লিখিত": 2619,
  "লিগ": 2620,
  "লিত": 2621,
  "লিন": 2622,
  "লির": 2623,
  "লিশ": 2624,
  "লী": 2625,
  "লীয়": 2626,
  "লুক": 2627,
  "লে": 2628,
  "লে,": 2629,
  "লেই": 2630,
  "লেও": 2631,
  "লেক": 2632,
  "লেজ": 2633,
  "লেট": 2634,
  "লেন": 2635,
  "লের": 2636,
  "লেস": 2637,
  "লো": 2638,
  "লোক": 2639,
  "লোড": 2640,
  "ল্ড": 2641,
  "ল্প": 2642,
  "ল্যান্ড": 2643,
  "ল্যান্ডের": 2644,
  "ল্ল": 2645,
  "঳": 2646,
  "঴": 2647,
  "঵": 2648,
  "শ": 2649,
  "শক্তি": 2650,
  "শত": 2651,
  "শন": 2652,
  "শনের": 2653,
  "শস্ত্র": 2654,
  "শা": 2655,
  "শাক": 2656,
  "শাখ": 2657,
  "শান": 2658,
  "শায়": 2659,
  "শায়ার": 2660,
  "শায়ারের": 2661,
  "শার": 2662,
  "শাল": 2663,
  "শালা": 2664,
  "শালী": 2665,
  "শাসন": 2666,
  "শাসিত": 2667,
  "শাস্ত্র": 2668,
  "শাহ": 2669,
  "শি": 2670,
  "শিক্ষ": 2671,
  "শিক্ষা": 2672,
  "শিত": 2673,
  "শিপ": 2674,
  "শিল্প": 2675,
  "শিল্পী": 2676,
  "শিল্পী।": 2677,
  "শিষ্ট": 2678,
  "শী": 2679,
  "শীপ": 2680,
  "শীল": 2681,
  "শুর": 2682,
  "শে": 2683,
  "শের": 2684,
  "শেষ": 2685,
  "শেষে": 2686,
  "শৈলী": 2687,
  "শো": 2688,
  "শোধ": 2689,
  "শ্চ": 2690,
  "শ্চিম": 2691,
  "শ্ব": 2692,
  "শ্বর": 2693,
  "শ্বরের": 2694,
  "শ্বাস": 2695,
  "শ্বিক": 2696,
  "শ্য": 2697,
  "শ্র": 2698,
  "শ্রী": 2699,
  "শ্রুত": 2700,
  "শ্রুতি": 2701,
  "শ্রেণ": 2702,
  "ষ": 2703,
  "ষণ": 2704,
  "ষণা": 2705,
  "ষদ": 2706,
  "ষদের": 2707,
  "ষম": 2708,
  "ষা": 2709,
  "ষিত": 2710,
  "ষুধ": 2711,
  "ষ্": 2712,
  "ষ্ক": 2713,
  "ষ্কার": 2714,
  "ষ্কৃত": 2715,
  "ষ্ট": 2716,
  "ষ্টা": 2717,
  "ষ্টি": 2718,
  "ষ্টির": 2719,
  "ষ্ট্র": 2720,
  "ষ্ট্রে": 2721,
  "ষ্ঠ": 2722,
  "ষ্ঠান": 2723,
  "ষ্ঠানিক": 2724,
  "ষ্ঠিত": 2725,
  "ষ্ঠী": 2726,
  "ষ্ঠীর": 2727,
  "ষ্ণ": 2728,
  "ষ্প": 2729,
  "ষ্য": 2730,
  "স": 2731,
  "স,": 2732,
  "স।": 2733,
  "সং": 2734,
  "সংখ্য": 2735,
  "সংখ্যক": 2736,
  "সংখ্যা": 2737,
  "সংযোগ": 2738,
  "সংস্থান": 2739,
  "সই": 2740,
  "সকে": 2741,
  "সঙ্গ": 2742,
  "সঙ্গীত": 2743,
  "সদ": 2744,
  "সন": 2745,
  "সনের": 2746,
  "সপ": 2747,
  "সব": 2748,
  "সভ": 2749,
  "সভা": 2750,
  "সভাতে": 2751,
  "সভাপতি": 2752,
  "সভায়": 2753,
  "সভার": 2754,
  "সভিত্তিক": 2755,
  "সম": 2756,
  "সময়": 2757,
  "সমান": 2758,
  "সমূহ": 2759,
  "সমূহে": 2760,
  "সমূহের": 2761,
  "সম্প": 2762,
  "সম্ম": 2763,
  "সম্যান": 2764,
  "সর": 2765,
  "সল": 2766,
  "সলাম": 2767,
  "সল্যান্ড": 2768,
  "সহ": 2769,
  "সা": 2770,
  "সাং": 2771,
  "সাই": 2772,
  "সাইট": 2773,
  "সাগর": 2774,
  "সাথে": 2775,
  "সাদ": 2776,
  "সান": 2777,
  "সাম": 2778,
  "সার": 2779,
  "সারণ": 2780,
  "সারিত": 2781,
  "সাল": 2782,
  "সাস": 2783,
  "সি": 2784,
  "সি)": 2785,
  "সিং": 2786,
  "সিংহ": 2787,
  "সিক": 2788,
  "সিদ্ধ": 2789,
  "সিন": 2790,
  "সির": 2791,
  "সিল": 2792,
  "সিসি": 2793,
  "সী": 2794,
  "সু": 2795,
  "সুম": 2796,
  "সুর": 2797,
  "সুল": 2798,
  "সূ": 2799,
  "সূচ": 2800,
  "সূচক": 2801,
  "সূত্র": 2802,
  "সে": 2803,
  "সেন": 2804,
  "সেফ": 2805,
  "সেবা": 2806,
  "সের": 2807,
  "সেরা": 2808,
  "সেল": 2809,
  "সৌ": 2810,
  "স্": 2811,
  "স্ক": 2812,
  "স্কার": 2813,
  "স্কি": 2814,
  "স্কৃত": 2815,
  "স্কৃতিক": 2816,
  "স্কে": 2817,
  "স্কো": 2818,
  "স্ক্র": 2819,
  "স্ট": 2820,
  "স্টন": 2821,
  "স্টার": 2822,
  "স্টি": 2823,
  "স্টের": 2824,
  "স্টেশন": 2825,
  "স্ট্র": 2826,
  "স্ত": 2827,
  "স্তক": 2828,
  "স্তম্ভ": 2829,
  "স্তর": 2830,
  "স্তা": 2831,
  "স্তাদ": 2832,
  "স্তান": 2833,
  "স্তি": 2834,
  "স্ত্র": 2835,
  "স্থ": 2836,
  "স্থল": 2837,
  "স্থলে": 2838,
  "স্থা": 2839,
  "স্থান": 2840,
  "স্থানীয়": 2841,
  "স্থানে": 2842,
  "স্থানের": 2843,
  "স্থায়": 2844,
  "স্থায়ী": 2845,
  "স্থার": 2846,
  "স্থিত": 2847,
  "স্প": 2848,
  "স্পর": 2849,
  "স্পর্শ": 2850,
  "স্পষ্ট": 2851,
  "স্ব": 2852,
  "স্বর": 2853,
  "স্বরূপ": 2854,
  "স্বরূপ,": 2855,
  "স্বাস্থ্য": 2856,
  "স্ম": 2857,
  "স্য": 2858,
  "স্যু": 2859,
  "স্র": 2860,
  "স্‌": 2861,
  "হ": 2862,
  "হণ": 2863,
  "হত": 2864,
  "হতি": 2865,
  "হত্য": 2866,
  "হত্যা": 2867,
  "হত্যার": 2868,
  "হন": 2869,
  "হর": 2870,
  "হল": 2871,
  "হা": 2872,
  "হাই": 2873,
  "হাউ": 2874,
  "হাজ": 2875,
  "হাট": 2876,
  "হান": 2877,
  "হাম": 2878,
  "হার": 2879,
  "হারা": 2880,
  "হারে": 2881,
  "হি": 2882,
  "হিত": 2883,
  "হির": 2884,
  "হীন": 2885,
  "হু": 2886,
  "হে": 2887,
  "হেড": 2888,
  "হেতু": 2889,
  "হের": 2890,
  "হেল": 2891,
  "হ্ম": 2892,
  "হ্যাম": 2893,
  "঺": 2894,
  "঻": 2895,
  "়": 2896,
  "ঽ": 2897,
  "া": 2898,
  "া\"": 2899,
  "া)": 2900,
  "া,": 2901,
  "া-": 2902,
  "া।": 2903,
  "াঁ": 2904,
  "াং": 2905,
  "াংশ": 2906,
  "াংশে": 2907,
  "াই": 2908,
  "াই,": 2909,
  "াইক": 2910,
  "াইজ": 2911,
  "াইজেশন": 2912,
  "াইট": 2913,
  "াইটেড": 2914,
  "াইটের": 2915,
  "াইড": 2916,
  "াইডার": 2917,
  "াইন": 2918,
  "াইনাল": 2919,
  "াইনের": 2920,
  "াইপ": 2921,
  "াইবার": 2922,
  "াইভ": 2923,
  "াইম": 2924,
  "াইয়": 2925,
  "াইয়া": 2926,
  "াইয়ের": 2927,
  "াইর": 2928,
  "াইল": 2929,
  "াইলের": 2930,
  "াইল্ড": 2931,
  "াইশ": 2932,
  "াইস": 2933,
  "াইহ": 2934,
  "াউ": 2935,
  "াউট": 2936,
  "াউদ": 2937,
  "াউদ্দিন": 2938,
  "াউন": 2939,
  "াউন্ড": 2940,
  "াও": 2941,
  "াওয়": 2942,
  "াওয়া": 2943,
  "াওয়ার": 2944,
  "াক": 2945,
  "াক,": 2946,
  "াকা": 2947,
  "াকাণ্ড": 2948,
  "াকায়": 2949,
  "াকার": 2950,
  "াকারী": 2951,
  "াকাল": 2952,
  "াকালীন": 2953,
  "াকালে": 2954,
  "াকি": 2955,
  "াকিস্তান": 2956,
  "াকু": 2957,
  "াকুর": 2958,
  "াকৃত": 2959,
  "াকৃতি": 2960,
  "াকে": 2961,
  "াকের": 2962,
  "াক্ত": 2963,
  "াক্রম": 2964,
  "াক্রমে": 2965,
  "াক্ষ": 2966,
  "াক্ষিক": 2967,
  "াক্স": 2968,
  "াখ": 2969,
  "াখালী": 2970,
  "াগ": 2971,
  "াগঞ্জ": 2972,
  "াগত": 2973,
  "াগতিক": 2974,
  "াগন": 2975,
  "াগর": 2976,
  "াগরে": 2977,
  "াগরের": 2978,
  "াগা": 2979,
  "াগার": 2980,
  "াগারে": 2981,
  "াগারের": 2982,
  "াগুল": 2983,
  "াগুলি": 2984,
  "াগুলিতে": 2985,
  "াগুলির": 2986,
  "াগুলো": 2987,
  "াগুলোর": 2988,
  "াগৃহ": 2989,
  "াগো": 2990,
  "াগোর": 2991,
  "াগ্র": 2992,
  "াঘ": 2993,
  "াঙ": 2994,
  "াঙ্ক": 2995,
  "াঙ্গ": 2996,
  "াঙ্গা": 2997,
  "াচ": 2998,
  "াচক": 2999,
  "াচল": 3000,
  "াচার": 3001,
  "াচার্য": 3002,
  "াচুস": 3003,
  "াচ্": 3004,
  "াজ": 3005,
  "াজন": 3006,
  "াজপুর": 3007,
  "াজা": 3008,
  "াজার": 3009,
  "াজি": 3010,
  "াজিক": 3011,
  "াজিত": 3012,
  "াজির": 3013,
  "াজী": 3014,
  "াজীবন": 3015,
  "াজের": 3016,
  "াজ্জ": 3017,
  "াজ্ঞ": 3018,
  "াঞ্চ": 3019,
  "াঞ্চল": 3020,
  "াঞ্চলীয়": 3021,
  "াঞ্চলে": 3022,
  "াঞ্চলের": 3023,
  "াঞ্জ": 3024,
  "াট": 3025,
  "াটা": 3026,
  "াটি": 3027,
  "াটিকে": 3028,
  "াটিতে": 3029,
  "াটে": 3030,
  "াড": 3031,
  "াড়": 3032,
  "াড়া": 3033,
  "াড়া,": 3034,
  "াড়ি": 3035,
  "াড়ী": 3036,
  "াডেম": 3037,
  "াণ": 3038,
  "াণিত": 3039,
  "াণিতিক": 3040,
  "াণী": 3041,
  "াণু": 3042,
  "াণ্ড": 3043,
  "াত": 3044,
  "াতা": 3045,
  "াতা,": 3046,
  "াতায়": 3047,
  "াতার": 3048,
  "াতি": 3049,
  "াতিক": 3050,
  "াতু": 3051,
  "াতুল": 3052,
  "াতে": 3053,
  "াতেই": 3054,
  "াতেও": 3055,
  "াতের": 3056,
  "াতো": 3057,
  "াত্ত": 3058,
  "াত্ত্বিক": 3059,
  "াত্ম": 3060,
  "াত্মক": 3061,
  "াত্মা": 3062,
  "াত্য": 3063,
  "াত্র": 3064,
  "াত্রিক": 3065,
  "াত্রী": 3066,
  "াথ": 3067,
  "াদ": 3068,
  "াদন": 3069,
  "াদশ": 3070,
  "াদা": 3071,
  "াদান": 3072,
  "াদার": 3073,
  "াদি": 3074,
  "াদিত": 3075,
  "াদী": 3076,
  "াদু": 3077,
  "াদুর": 3078,
  "াদে": 3079,
  "াদেব": 3080,
  "াদেমি": 3081,
  "াদের": 3082,
  "াদেশ": 3083,
  "াদেশিক": 3084,
  "াদ্দ": 3085,
  "াধ": 3086,
  "াধারণ": 3087,
  "াধি": 3088,
  "াধিক": 3089,
  "াধিকার": 3090,
  "াধীন": 3091,
  "ান": 3092,
  "ান,": 3093,
  "ান।": 3094,
  "ানজ": 3095,
  "ানন্দ": 3096,
  "ানস": 3097,
  "ানা": 3098,
  "ানাড": 3099,
  "ানার": 3100,
  "ানি": 3101,
  "ানি,": 3102,
  "ানিয়া": 3103,
  "ানির": 3104,
  "ানী": 3105,
  "ানু": 3106,
  "ানুসারে": 3107,
  "ানে": 3108,
  "ানের": 3109,
  "ানো": 3110,
  "ানোর": 3111,
  "ান্ট": 3112,
  "ান্ড": 3113,
  "ান্ডা": 3114,
  "ান্ডার": 3115,
  "ান্ত": 3116,
  "ান্তর": 3117,
  "ান্তরিত": 3118,
  "ান্তরের": 3119,
  "ান্তে": 3120,
  "ান্ত্রিক": 3121,
  "ান্দ": 3122,
  "ান্দা": 3123,
  "ান্দি": 3124,
  "ান্দ্র": 3125,
  "ান্ন": 3126,
  "ান্স": 3127,
  "াপ": 3128,
  "াপক": 3129,
  "াপতি": 3130,
  "াপত্র": 3131,
  "াপন": 3132,
  "াপনা": 3133,
  "াপনের": 3134,
  "াপাড়া": 3135,
  "াপি": 3136,
  "াপিত": 3137,
  "াপুর": 3138,
  "াপূর্ণ": 3139,
  "াপে": 3140,
  "াপেক্ষে": 3141,
  "াপের": 3142,
  "াপ্ত": 3143,
  "াপ্তরিক": 3144,
  "াপ্তাহ": 3145,
  "াপ্তাহিক": 3146,
  "াপ্প": 3147,
  "াপ্র": 3148,
  "াফ": 3149,
  "াব": 3150,
  "াবন": 3151,
  "াবর": 3152,
  "াবর্ত": 3153,
  "াবল": 3154,
  "াবলম্ব": 3155,
  "াবলি": 3156,
  "াবলিক": 3157,
  "াবলী": 3158,
  "াবশেষ": 3159,
  "াবসান": 3160,
  "াবহ": 3161,
  "াবা": 3162,
  "াবাদ": 3163,
  "াবাদের": 3164,
  "াবার": 3165,
  "াবাস": 3166,
  "াবাহ": 3167,
  "াবি": 3168,
  "াবিজ্ঞ": 3169,
  "াবিজ্ঞান": 3170,
  "াবিদ": 3171,
  "াবী": 3172,
  "াবৃত্ত": 3173,
  "াবৃত্তি": 3174,
  "াবে": 3175,
  "াবেক": 3176,
  "াবেক্ষণ": 3177,
  "াবের": 3178,
  "াবেশ": 3179,
  "াব্দ": 3180,
  "াব্দে": 3181,
  "াব্দের": 3182,
  "াব্য": 3183,
  "াব্লিউ": 3184,
  "াভ": 3185,
  "াভাব": 3186,
  "াভাবিক": 3187,
  "াভার": 3188,
  "াভাষ": 3189,
  "াভিন": 3190,
  "াম": 3191,
  "াম,": 3192,
  "ামক": 3193,
  "ামত": 3194,
  "ামপুর": 3195,
  "াময়": 3196,
  "ামরিক": 3197,
  "ামা": 3198,
  "ামাটি": 3199,
  "ামাণ": 3200,
  "ামান": 3201,
  "ামান্য": 3202,
  "ামার": 3203,
  "ামাল": 3204,
  "ামি": 3205,
  "ামিন": 3206,
  "ামী": 3207,
  "ামুটি": 3208,
  "ামূল": 3209,
  "ামূলক": 3210,
  "ামে": 3211,
  "ামের": 3212,
  "ামো": 3213,
  "াম্প": 3214,
  "াম্ব": 3215,
  "াম্ম": 3216,
  "াম্মদ": 3217,
  "ায": 3218,
  "ায়": 3219,
  "ায়,": 3220,
  "ায়।": 3221,
  "ায়ক": 3222,
  "ায়কের": 3223,
  "ায়ণ": 3224,
  "ায়ণের": 3225,
  "ায়ন": 3226,
  "ায়নিক": 3227,
  "ায়নে": 3228,
  "ায়নের": 3229,
  "ায়া": 3230,
  "ায়ান": 3231,
  "ায়ার": 3232,
  "ায়ারের": 3233,
  "ায়িত": 3234,
  "ায়ী": 3235,
  "ায়ে": 3236,
  "ায়েত": 3237,
  "ায়ের": 3238,
  "াযোগ": 3239,
  "ার": 3240,
  "ার,": 3241,
  "ার।": 3242,
  "ারক": 3243,
  "ারণ": 3244,
  "ারন": 3245,
  "ারব": 3246,
  "ারবাইজ": 3247,
  "ারম্ভ": 3248,
  "ারস": 3249,
  "ারা": 3250,
  "ারি": 3251,
  "ারিত": 3252,
  "ারির": 3253,
  "ারী": 3254,
  "ারীর": 3255,
  "ারে": 3256,
  "ারেটিং": 3257,
  "ারের": 3258,
  "ারেল": 3259,
  "ারেশন": 3260,
  "ারেশনের": 3261,
  "ারোপ": 3262,
  "ার্": 3263,
  "ার্ক": 3264,
  "ার্কিন": 3265,
  "ার্কের": 3266,
  "ার্গ": 3267,
  "ার্চ": 3268,
  "ার্জ": 3269,
  "ার্জন": 3270,
  "ার্জি": 3271,
  "ার্জী": 3272,
  "ার্ট": 3273,
  "ার্টমেন্ট": 3274,
  "ার্ড": 3275,
  "ার্থ": 3276,
  "ার্থী": 3277,
  "ার্থে": 3278,
  "ার্দ": 3279,
  "ার্ধ": 3280,
  "ার্ন": 3281,
  "ার্নার": 3282,
  "ার্ভ": 3283,
  "ার্ম": 3284,
  "ার্মান": 3285,
  "ার্ল": 3286,
  "ার্লস": 3287,
  "ার্ল্ড": 3288,
  "ার্স": 3289,
  "ার্সি": 3290,
  "ার্সের": 3291,
  "ার্সেল": 3292,
  "াল": 3293,
  "াল,": 3294,
  "ালক": 3295,
  "ালয়": 3296,
  "ালয়ে": 3297,
  "ালয়ের": 3298,
  "ালা": 3299,
  "ালাভ": 3300,
  "ালার": 3301,
  "ালি": 3302,
  "ালিত": 3303,
  "ালিয়া": 3304,
  "ালির": 3305,
  "ালী": 3306,
  "ালীর": 3307,
  "ালে": 3308,
  "ালেখ": 3309,
  "ালেম": 3310,
  "ালের": 3311,
  "ালো": 3312,
  "াশ": 3313,
  "াশয়": 3314,
  "াশা": 3315,
  "াশি": 3316,
  "াশে": 3317,
  "াশের": 3318,
  "াশ্ম": 3319,
  "াষ": 3320,
  "াস": 3321,
  "াস)": 3322,
  "াস,": 3323,
  "াসন": 3324,
  "াসনে": 3325,
  "াসনের": 3326,
  "াসম": 3327,
  "াসমূহ": 3328,
  "াসরি": 3329,
  "াসহ": 3330,
  "াসা": 3331,
  "াসাহিত": 3332,
  "াসি": 3333,
  "াসিত": 3334,
  "াসী": 3335,
  "াসে": 3336,
  "াসেব": 3337,
  "াসের": 3338,
  "াস্": 3339,
  "াস্ট": 3340,
  "াস্টি": 3341,
  "াস্ত": 3342,
  "াস্তব": 3343,
  "াস্ত্র": 3344,
  "াস্থ": 3345,
  "াস্থ্য": 3346,
  "াহ": 3347,
  "াহরণ": 3348,
  "াহার": 3349,
  "াহিত": 3350,
  "াহিদ": 3351,
  "াহী": 3352,
  "াহ্ম": 3353,
  "াৎ": 3354,
  "ি": 3355,
  "ি\"": 3356,
  "ি)": 3357,
  "ি,": 3358,
  "ি-": 3359,
  "ি।": 3360,
  "িং": 3361,
  "িং,": 3362,
  "িংক": 3363,
  "িংটন": 3364,
  "িংয়ের": 3365,
  "িংস": 3366,
  "িউ": 3367,
  "িউড": 3368,
  "িউল": 3369,
  "িও": 3370,
  "িওন": 3371,
  "িওপ": 3372,
  "িওর": 3373,
  "িওল": 3374,
  "িক": 3375,
  "িক,": 3376,
  "িকভাবে": 3377,
  "িকর": 3378,
  "িকল্প": 3379,
  "িকা": 3380,
  "িকা,": 3381,
  "িকাংশ": 3382,
  "িকান": 3383,
  "িকায়": 3384,
  "িকার": 3385,
  "িকারী": 3386,
  "িকারের": 3387,
  "িকাল": 3388,
  "িকিউ": 3389,
  "িকিৎ": 3390,
  "িকে": 3391,
  "িকেট": 3392,
  "িকের": 3393,
  "িকো": 3394,
  "িক্ত": 3395,
  "িক্যাল": 3396,
  "িক্ষ": 3397,
  "িক্স": 3398,
  "িখ": 3399,
  "িখিত": 3400,
  "িখে": 3401,
  "িগ": 3402,
  "িগত": 3403,
  "িগো": 3404,
  "িঙ্গ": 3405,
  "িচ": 3406,
  "িজ": 3407,
  "িজম": 3408,
  "িজাত": 3409,
  "িজি": 3410,
  "িজীব": 3411,
  "িজে": 3412,
  "িজের": 3413,
  "িজ্ঞ": 3414,
  "িঝ": 3415,
  "িট": 3416,
  "িটন": 3417,
  "িটার": 3418,
  "িটারে": 3419,
  "িটারের": 3420,
  "িটাল": 3421,
  "িটি": 3422,
  "িটিকে": 3423,
  "িটিতে": 3424,
  "িটির": 3425,
  "িটিশ": 3426,
  "িটেক": 3427,
  "িটেকনিক": 3428,
  "িটেড": 3429,
  "িটের": 3430,
  "িড": 3431,
  "িডি": 3432,
  "িডিও": 3433,
  "িডিয়া": 3434,
  "িডের": 3435,
  "িণ": 3436,
  "িণী": 3437,
  "িত": 3438,
  "িত,": 3439,
  "িত।": 3440,
  "িতা": 3441,
  "িতায়": 3442,
  "িতার": 3443,
  "িতি": 3444,
  "িতির": 3445,
  "িতীয়": 3446,
  "িতে": 3447,
  "িতে,": 3448,
  "িত্ত": 3449,
  "িত্তিক": 3450,
  "িত্ব": 3451,
  "িত্য": 3452,
  "িত্র": 3453,
  "িথ": 3454,
  "িদ": 3455,
  "িদের": 3456,
  "িদ্দ": 3457,
  "িদ্ধ": 3458,
  "িদ্র": 3459,
  "িন": 3460,
  "িন,": 3461,
  "িনা": 3462,
  "িনার": 3463,
  "িনাল": 3464,
  "িনি": 3465,
  "িনিধ": 3466,
  "িনির": 3467,
  "িনী": 3468,
  "িনীর": 3469,
  "িনে": 3470,
  "িনের": 3471,
  "িনো": 3472,
  "িন্ট": 3473,
  "িন্টার": 3474,
  "িন্ড": 3475,
  "িন্দ": 3476,
  "িন্ন": 3477,
  "িন্যাস": 3478,
  "িন্স": 3479,
  "িপ": 3480,
  "িপত্য": 3481,
  "িপি": 3482,
  "িপির": 3483,
  "িপুর": 3484,
  "িপূর্ণ": 3485,
  "িপ্ট": 3486,
  "িপ্ত": 3487,
  "িফ": 3488,
  "িফা": 3489,
  "িফার": 3490,
  "িফিক": 3491,
  "িফোর্ন": 3492,
  "িব": 3493,
  "িবদ্ধ": 3494,
  "িবর্গ": 3495,
  "িবর্ত": 3496,
  "িবাদ": 3497,
  "িবার": 3498,
  "িবাস": 3499,
  "িবাসী": 3500,
  "িবাহ": 3501,
  "িবি": 3502,
  "িবেশ": 3503,
  "িবেশিক": 3504,
  "িব্র": 3505,
  "িভ": 3506,
  "িভার": 3507,
  "িভুক্ত": 3508,
  "িম": 3509,
  "িমা": 3510,
  "িমার": 3511,
  "িমি": 3512,
  "িমূলক": 3513,
  "িমের": 3514,
  "িম্প": 3515,
  "িম্ব": 3516,
  "িম্বাব": 3517,
  "িয়": 3518,
  "িয়ন": 3519,
  "িয়নের": 3520,
  "িয়র": 3521,
  "িয়া": 3522,
  "িয়া)": 3523,
  "িয়া,": 3524,
  "িয়াং": 3525,
  "িয়াক": 3526,
  "িয়াকে": 3527,
  "িয়াজ": 3528,
  "িয়াত": 3529,
  "িয়াতে": 3530,
  "িয়াদ": 3531,
  "িয়ান": 3532,
  "িয়ান,": 3533,
  "িয়ানদের": 3534,
  "িয়ানা": 3535,
  "িয়ানের": 3536,
  "িয়াম": 3537,
  "িয়াম,": 3538,
  "িয়ামের": 3539,
  "িয়ায়": 3540,
  "িয়ার": 3541,
  "িয়ারের": 3542,
  "িয়ার্স": 3543,
  "িয়াল": 3544,
  "িয়াস": 3545,
  "িয়াসের": 3546,
  "িয়াহ": 3547,
  "িয়ে": 3548,
  "িয়েট": 3549,
  "িয়েত": 3550,
  "িয়েন": 3551,
  "িয়ের": 3552,
  "িয়েল": 3553,
  "িয়োগ": 3554,
  "ির": 3555,
  "িরহাট": 3556,
  "িরা": 3557,
  "িরি": 3558,
  "িরে": 3559,
  "িরের": 3560,
  "ির্দিষ্ট": 3561,
  "িল": 3562,
  "িল,": 3563,
  "িলা": 3564,
  "িলার": 3565,
  "িলি": 3566,
  "িলিং": 3567,
  "িলে": 3568,
  "িলের": 3569,
  "িল্ড": 3570,
  "িল্প": 3571,
  "িল্ল": 3572,
  "িল্লি": 3573,
  "িশ": 3574,
  "িশন": 3575,
  "িশনে": 3576,
  "িশনের": 3577,
  "িশীল": 3578,
  "িশোর": 3579,
  "িশ্চ": 3580,
  "িষ": 3581,
  "িষ্ট": 3582,
  "িস": 3583,
  "িস,": 3584,
  "িসং": 3585,
  "িসংঘ": 3586,
  "িসন": 3587,
  "িসম": 3588,
  "িসমূহ": 3589,
  "িসহ": 3590,
  "িসা": 3591,
  "িসার": 3592,
  "িসি": 3593,
  "িসির": 3594,
  "িসে": 3595,
  "িসেম্বর": 3596,
  "িসের": 3597,
  "িস্ক": 3598,
  "িস্ট": 3599,
  "িস্টার": 3600,
  "িস্ত": 3601,
  "িস্তান": 3602,
  "িস্তানের": 3603,
  "িস্থ": 3604,
  "িহ": 3605,
  "িহ্ন": 3606,
  "িৎ": 3607,
  "ী": 3608,
  "ী,": 3609,
  "ী।": 3610,
  "ীক": 3611,
  "ীকরণ": 3612,
  "ীকরণের": 3613,
  "ীকা": 3614,
  "ীকার": 3615,
  "ীকৃত": 3616,
  "ীকে": 3617,
  "ীড়": 3618,
  "ীণ": 3619,
  "ীত": 3620,
  "ীতা": 3621,
  "ীতি": 3622,
  "ীতে": 3623,
  "ীদ": 3624,
  "ীদার": 3625,
  "ীদের": 3626,
  "ীন": 3627,
  "ীনে": 3628,
  "ীপ": 3629,
  "ীপুর": 3630,
  "ীব": 3631,
  "ীবন": 3632,
  "ীবাজার": 3633,
  "ীব্র": 3634,
  "ীভূত": 3635,
  "ীম": 3636,
  "ীমা": 3637,
  "ীয়": 3638,
  "ীয়মান": 3639,
  "ীয়া": 3640,
  "ীর": 3641,
  "ীরা": 3642,
  "ীরে": 3643,
  "ীরের": 3644,
  "ীর্ণ": 3645,
  "ীর্ত": 3646,
  "ীল": 3647,
  "ীশ": 3648,
  "ীস": 3649,
  "ীসৃ": 3650,
  "ু": 3651,
  "ু,": 3652,
  "ু।": 3653,
  "ুঁ": 3654,
  "ুং": 3655,
  "ুই": 3656,
  "ুইন": 3657,
  "ুক": 3658,
  "ুকি": 3659,
  "ুকু": 3660,
  "ুকুর": 3661,
  "ুকে": 3662,
  "ুকের": 3663,
  "ুক্ত": 3664,
  "ুখ": 3665,
  "ুখী": 3666,
  "ুগ": 3667,
  "ুগত্য": 3668,
  "ুগু": 3669,
  "ুচ": 3670,
  "ুজ": 3671,
  "ুজের": 3672,
  "ুজ্জ": 3673,
  "ুজ্জামান": 3674,
  "ুট": 3675,
  "ুটা": 3676,
  "ুটি": 3677,
  "ুটির": 3678,
  "ুড": 3679,
  "ুড়": 3680,
  "ুড়ি": 3681,
  "ুণ": 3682,
  "ুত": 3683,
  "ুতি": 3684,
  "ুতে": 3685,
  "ুতোষ": 3686,
  "ুদ": 3687,
  "ুদা": 3688,
  "ুদের": 3689,
  "ুদ্দ": 3690,
  "ুদ্দিন": 3691,
  "ুদ্দীন": 3692,
  "ুদ্ধ": 3693,
  "ুদ্ধে": 3694,
  "ুদ্র": 3695,
  "ুদ্রিক": 3696,
  "ুধ": 3697,
  "ুন": 3698,
  "ুন,": 3699,
  "ুন।": 3700,
  "ুনা": 3701,
  "ুনার": 3702,
  "ুনি": 3703,
  "ুনিক": 3704,
  "ুনিয়া": 3705,
  "ুনের": 3706,
  "ুপ": 3707,
  "ুপদী": 3708,
  "ুপ্ত": 3709,
  "ুব": 3710,
  "ুবন": 3711,
  "ুভ": 3712,
  "ুম": 3713,
  "ুমাত্র": 3714,
  "ুমান": 3715,
  "ুমিন": 3716,
  "ুম্ব": 3717,
  "ুয়": 3718,
  "ুয়া": 3719,
  "ুয়ান": 3720,
  "ুয়ার": 3721,
  "ুয়ারি": 3722,
  "ুয়াল": 3723,
  "ুয়ে": 3724,
  "ুয়ের": 3725,
  "ুয়েল": 3726,
  "ুর": 3727,
  "ুর,": 3728,
  "ুরা": 3729,
  "ুরি": 3730,
  "ুরির": 3731,
  "ুরী": 3732,
  "ুরু": 3733,
  "ুরুর": 3734,
  "ুরুষ": 3735,
  "ুরে": 3736,
  "ুরের": 3737,
  "ুরো": 3738,
  "ুল": 3739,
  "ুলা": 3740,
  "ুলার": 3741,
  "ুলি": 3742,
  "ুলিপি": 3743,
  "ুলিয়া": 3744,
  "ুলে": 3745,
  "ুলের": 3746,
  "ুল্লাহ": 3747,
  "ুশ": 3748,
  "ুষ": 3749,
  "ুষ্প": 3750,
  "ুস": 3751,
  "ুসারে": 3752,
  "ুসে": 3753,
  "ুহ": 3754,
  "ুৎপ": 3755,
  "ূ": 3756,
  "ূট": 3757,
  "ূত": 3758,
  "ূন": 3759,
  "ূপ": 3760,
  "ূপে": 3761,
  "ূর": 3762,
  "ূর্ণ": 3763,
  "ূর্ত": 3764,
  "ূল": 3765,
  "ূলক": 3766,
  "ূহ": 3767,
  "ৃ": 3768,
  "ৃক্ত": 3769,
  "ৃঙ্": 3770,
  "ৃঙ্খ": 3771,
  "ৃঙ্খল": 3772,
  "ৃঙ্খলা": 3773,
  "ৃণ": 3774,
  "ৃত": 3775,
  "ৃতি": 3776,
  "ৃতিক": 3777,
  "ৃতিতে": 3778,
  "ৃতির": 3779,
  "ৃতীয়": 3780,
  "ৃত্ত": 3781,
  "ৃত্ব": 3782,
  "ৃত্যু": 3783,
  "ৃদ": 3784,
  "ৃদ্ধ": 3785,
  "ৃশ": 3786,
  "ৃশ্য": 3787,
  "ৃষ্": 3788,
  "ৃষ্ট": 3789,
  "ৃষ্টি": 3790,
  "ৃষ্টির": 3791,
  "ৃষ্ঠ": 3792,
  "ৃষ্ণ": 3793,
  "ৃষ্ণের": 3794,
  "ৃহ": 3795,
  "ৃহীত": 3796,
  "ৄ": 3797,
  "৅": 3798,
  "৆": 3799,
  "ে": 3800,
  "ে,": 3801,
  "ে।": 3802,
  "েই": 3803,
  "েইন": 3804,
  "েইল": 3805,
  "েও": 3806,
  "েক": 3807,
  "েকশন": 3808,
  "েকে": 3809,
  "েক্ট": 3810,
  "েক্টর": 3811,
  "েক্ষ": 3812,
  "েক্ষা": 3813,
  "েক্স": 3814,
  "েক্সের": 3815,
  "েখ": 3816,
  "েগ": 3817,
  "েচ্ছ": 3818,
  "েজ": 3819,
  "েঞ্জ": 3820,
  "েট": 3821,
  "েট,": 3822,
  "েটর": 3823,
  "েটস": 3824,
  "েটা": 3825,
  "েটি": 3826,
  "েটিক": 3827,
  "েটে": 3828,
  "েটেড": 3829,
  "েটের": 3830,
  "েট্র": 3831,
  "েড": 3832,
  "েডি": 3833,
  "েত": 3834,
  "েতা": 3835,
  "েতে": 3836,
  "েত্র": 3837,
  "েত্রে": 3838,
  "েদ": 3839,
  "েধ": 3840,
  "েন": 3841,
  "েন,": 3842,
  "েন।": 3843,
  "েনস": 3844,
  "েনহ": 3845,
  "েনা": 3846,
  "েনীয়": 3847,
  "েনে": 3848,
  "েনের": 3849,
  "েন্ট": 3850,
  "েন্টাইন": 3851,
  "েন্টাল": 3852,
  "েন্টি": 3853,
  "েন্টে": 3854,
  "েন্টের": 3855,
  "েন্ড": 3856,
  "েন্ডার": 3857,
  "েন্দ": 3858,
  "েন্দ্র": 3859,
  "েন্দ্রনাথ": 3860,
  "েন্দ্রে": 3861,
  "েন্স": 3862,
  "েন্সি": 3863,
  "েন্সির": 3864,
  "েন্সের": 3865,
  "েপ": 3866,
  "েপণ": 3867,
  "েফ": 3868,
  "েব": 3869,
  "েবে": 3870,
  "েব্র": 3871,
  "েভ": 3872,
  "েম": 3873,
  "েমন": 3874,
  "েমি": 3875,
  "েমে": 3876,
  "েম্ব": 3877,
  "েম্বর": 3878,
  "েম্বরে": 3879,
  "েম্বরের": 3880,
  "েম্বার": 3881,
  "েয়": 3882,
  "েয়ার": 3883,
  "েয়ে": 3884,
  "ের": 3885,
  "েরও": 3886,
  "েরা": 3887,
  "েরি": 3888,
  "েল": 3889,
  "েল,": 3890,
  "েলা": 3891,
  "েলাইট": 3892,
  "েলার": 3893,
  "েলি": 3894,
  "েলে": 3895,
  "েলের": 3896,
  "েশ": 3897,
  "েশন": 3898,
  "েশনে": 3899,
  "েশনের": 3900,
  "েশন্স": 3901,
  "েশ্বর": 3902,
  "েশ্বরী": 3903,
  "েষ": 3904,
  "েস": 3905,
  "েস,": 3906,
  "েসি": 3907,
  "েসে": 3908,
  "েসের": 3909,
  "েস্ট": 3910,
  "েস্টার": 3911,
  "েহ": 3912,
  "ৈ": 3913,
  "ৈজ্ঞানিক": 3914,
  "ৈত": 3915,
  "ৈতিক": 3916,
  "ৈধ": 3917,
  "ৈল": 3918,
  "ৈলী": 3919,
  "৉": 3920,
  "৊": 3921,
  "ো": 3922,
  "ো,": 3923,
  "ো-": 3924,
  "ো।": 3925,
  "োঁ": 3926,
  "োঁজ": 3927,
  "োই": 3928,
  "োক": 3929,
  "োক,": 3930,
  "োকা": 3931,
  "োকে": 3932,
  "োক্ত": 3933,
  "োক্র": 3934,
  "োগ": 3935,
  "োগ্র": 3936,
  "োগ্রাফ": 3937,
  "োগ্রাফি": 3938,
  "োগ্ল": 3939,
  "োচ": 3940,
  "োচন": 3941,
  "োচনা": 3942,
  "োচিত": 3943,
  "োজ": 3944,
  "োজন": 3945,
  "োজা": 3946,
  "োজাহ": 3947,
  "োজাহাজ": 3948,
  "োজেন": 3949,
  "োট": 3950,
  "োটা": 3951,
  "োটি": 3952,
  "োটিক": 3953,
  "োড": 3954,
  "োডক্স": 3955,
  "োড়": 3956,
  "োড়শ": 3957,
  "োড়া": 3958,
  "োডাক": 3959,
  "োত": 3960,
  "োতে": 3961,
  "োত্তর": 3962,
  "োত্র": 3963,
  "োদ": 3964,
  "োদ্": 3965,
  "োদ্ধ": 3966,
  "োধ": 3967,
  "োধন": 3968,
  "োধী": 3969,
  "োন": 3970,
  "োনা": 3971,
  "োনার": 3972,
  "োনাল": 3973,
  "োনাল্ড": 3974,
  "োনি": 3975,
  "োনিয়া": 3976,
  "োনের": 3977,
  "োনেশ": 3978,
  "োনো": 3979,
  "োন্ন": 3980,
  "োপ": 3981,
  "োপল": 3982,
  "োপা": 3983,
  "োপাধ্য": 3984,
  "োপাধ্যায়": 3985,
  "োপাধ্যায়,": 3986,
  "োপাধ্যায়ের": 3987,
  "োপাল": 3988,
  "োফ": 3989,
  "োব": 3990,
  "োবাইল": 3991,
  "োভ": 3992,
  "োভা": 3993,
  "োভার": 3994,
  "োম": 3995,
  "োমা": 3996,
  "োমিটার": 3997,
  "োমুখ": 3998,
  "োমে": 3999,
  "োমের": 4000,
  "োয়": 4001,
  "োয়া": 4002,
  "োয়াড়": 4003,
  "োয়ান": 4004,
  "োয়ার": 4005,
  "োয়েন্টি": 4006,
  "োর": 4007,
  "োরা": 4008,
  "োরি": 4009,
  "োরিয়াল": 4010,
  "োরে": 4011,
  "োরের": 4012,
  "োর্": 4013,
  "োর্ট": 4014,
  "োর্টিং": 4015,
  "োর্ড": 4016,
  "োর্ন": 4017,
  "োর্স": 4018,
  "োল": 4019,
  "োলজ": 4020,
  "োলজি": 4021,
  "োলা": 4022,
  "োলার": 4023,
  "োলো": 4024,
  "োল্ড": 4025,
  "োশ": 4026,
  "োষ": 4027,
  "োস": 4028,
  "োসফ": 4029,
  "োসিয়ে": 4030,
  "োসের": 4031,
  "োস্": 4032,
  "োহ": 4033,
  "োহিত": 4034,
  "োহী": 4035,
  "ৌ": 4036,
  "ৌক": 4037,
  "ৌকিক": 4038,
  "ৌশ": 4039,
  "ৌশল": 4040,
  "ৌহ": 4041,
  "্": 4042,
  "্ক": 4043,
  "্কা": 4044,
  "্কার": 4045,
  "্কেট": 4046,
  "্কো": 4047,
  "্গ": 4048,
  "্চ": 4049,
  "্ছ": 4050,
  "্জ": 4051,
  "্জন": 4052,
  "্ঞ": 4053,
  "্ট": 4054,
  "্টন": 4055,
  "্টর": 4056,
  "্টা": 4057,
  "্টার": 4058,
  "্টি": 4059,
  "্টিক": 4060,
  "্টিন": 4061,
  "্টে": 4062,
  "্টেন": 4063,
  "্টের": 4064,
  "্টোর": 4065,
  "্ট্র": 4066,
  "্ঠ": 4067,
  "্ড": 4068,
  "্ডার": 4069,
  "্ডিং": 4070,
  "্ণ": 4071,
  "্ত": 4072,
  "্তন": 4073,
  "্তা": 4074,
  "্তু": 4075,
  "্তুগ": 4076,
  "্তে": 4077,
  "্তো": 4078,
  "্ত্": 4079,
  "্থ": 4080,
  "্দ": 4081,
  "্ধ": 4082,
  "্ধা": 4083,
  "্ন": 4084,
  "্না": 4085,
  "্নার": 4086,
  "্নে": 4087,
  "্নেয়": 4088,
  "্নের": 4089,
  "্প": 4090,
  "্পনিক": 4091,
  "্পায়ার": 4092,
  "্ফ": 4093,
  "্ব": 4094,
  "্বর": 4095,
  "্বল": 4096,
  "্বান": 4097,
  "্বার": 4098,
  "্বিক": 4099,
  "্বিত": 4100,
  "্বে": 4101,
  "্বের": 4102,
  "্বেষ": 4103,
  "্ভ": 4104,
  "্ভব": 4105,
  "্ম": 4106,
  "্মান": 4107,
  "্মি": 4108,
  "্য": 4109,
  "্য,": 4110,
  "্য।": 4111,
  "্যতা": 4112,
  "্যন্ত": 4113,
  "্যব": 4114,
  "্যমান": 4115,
  "্যর্থ": 4116,
  "্যস্ত": 4117,
  "্যা": 4118,
  "্যাং": 4119,
  "্যাংক": 4120,
  "্যাংশ": 4121,
  "্যাক": 4122,
  "্যাক্স": 4123,
  "্যাগ": 4124,
  "্যাঙ্ক": 4125,
  "্যাজ": 4126,
  "্যাট": 4127,
  "্যাটফর্ম": 4128,
  "্যাটিক": 4129,
  "্যাড": 4130,
  "্যাণ": 4131,
  "্যাত": 4132,
  "্যান": 4133,
  "্যান্ট": 4134,
  "্যান্ড": 4135,
  "্যান্ডের": 4136,
  "্যান্য": 4137,
  "্যান্স": 4138,
  "্যাপ": 4139,
  "্যাপী": 4140,
  "্যাপ্ত": 4141,
  "্যাফ": 4142,
  "্যাব": 4143,
  "্যাভ": 4144,
  "্যাম": 4145,
  "্যাম্প": 4146,
  "্যায়": 4147,
  "্যায়ে": 4148,
  "্যার": 4149,
  "্যারা": 4150,
  "্যারি": 4151,
  "্যারে": 4152,
  "্যাল": 4153,
  "্যালয়": 4154,
  "্যালোচিত": 4155,
  "্যাশ": 4156,
  "্যাশন": 4157,
  "্যাশনাল": 4158,
  "্যাস": 4159,
  "্যিক": 4160,
  "্যু": 4161,
  "্যুত": 4162,
  "্যুতিক": 4163,
  "্যুত্থ": 4164,
  "্যুর": 4165,
  "্যুৎ": 4166,
  "্যে": 4167,
  "্যের": 4168,
  "্যেষ্ঠ": 4169,
  "্যো": 4170,
  "্যোক্ত": 4171,
  "্যোগ": 4172,
  "্র": 4173,
  "্রতিক": 4174,
  "্রদ": 4175,
  "্রদায়": 4176,
  "্রদায়িক": 4177,
  "্রম": 4178,
  "্রমে": 4179,
  "্রয়": 4180,
  "্রাজ": 4181,
  "্রাট": 4182,
  "্রান্ত": 4183,
  "্রাম": 4184,
  "্রাল": 4185,
  "্রাস": 4186,
  "্রি": 4187,
  "্রিক": 4188,
  "্রিয়া": 4189,
  "্রী": 4190,
  "্রে": 4191,
  "্রেট": 4192,
  "্রেড": 4193,
  "্রেণ": 4194,
  "্রো": 4195,
  "্ল": 4196,
  "্লা": 4197,
  "্লার": 4198,
  "্লাস্ট": 4199,
  "্লাহ": 4200,
  "্লিউ": 4201,
  "্লিক": 4202,
  "্লিষ্ট": 4203,
  "্লু": 4204,
  "্লে": 4205,
  "্লেক্স": 4206,
  "্লেখ": 4207,
  "্লেষ": 4208,
  "্লেষণ": 4209,
  "্ষ": 4210,
  "্ষিক": 4211,
  "্স": 4212,
  "্ৰ": 4213,
  "্‌": 4214,
  "্‌স": 4215,
  "ৎ": 4216,
  "ৎকার": 4217,
  "ৎপ": 4218,
  "ৎস": 4219,
  "ৎস্য": 4220,
  "৏": 4221,
  "৐": 4222,
  "৑": 4223,
  "৒": 4224,
  "৓": 4225,
  "৔": 4226,
  "৕": 4227,
  "৖": 4228,
  "ৗ": 4229,
  "৘": 4230,
  "৙": 4231,
  "৚": 4232,
  "৛": 4233,
  "ড়": 4234,
  "ঢ়": 4235,
  "৞": 4236,
  "য়": 4237,
  "ৠ": 4238,
  "ৡ": 4239,
  "ৢ": 4240,
  "ৣ": 4241,
  "৤": 4242,
  "৥": 4243,
  "০": 4244,
  "০)": 4245,
  "০-এর": 4246,
  "০০": 4247,
  "০০০": 4248,
  "১": 4249,
  "১)": 4250,
  "১),": 4251,
  "১,": 4252,
  "১-এ": 4253,
  "১০": 4254,
  "১১": 4255,
  "১২": 4256,
  "১৩": 4257,
  "১৪": 4258,
  "১৫": 4259,
  "১৬": 4260,
  "১৭": 4261,
  "১৮": 4262,
  "১৯": 4263,
  "১৯)": 4264,
  "২": 4265,
  "২)": 4266,
  "২),": 4267,
  "২,": 4268,
  "২-এ": 4269,
  "২০": 4270,
  "২০০": 4271,
  "২০১": 4272,
  "২১": 4273,
  "২২": 4274,
  "২৩": 4275,
  "২৪": 4276,
  "২৫": 4277,
  "২৬": 4278,
  "২৭": 4279,
  "২৮": 4280,
  "২৯": 4281,
  "৩": 4282,
  "৩)": 4283,
  "৩),": 4284,
  "৩,": 4285,
  "৩-এ": 4286,
  "৩০": 4287,
  "৩১": 4288,
  "৩২": 4289,
  "৩৩": 4290,
  "৩৫": 4291,
  "৩৬": 4292,
  "৩৮": 4293,
  "৩৯": 4294,
  "৪": 4295,
  "৪)": 4296,
  "৪),": 4297,
  "৪-এ": 4298,
  "৪০": 4299,
  "৪২": 4300,
  "৪৪": 4301,
  "৪৫": 4302,
  "৪৬": 4303,
  "৪৮": 4304,
  "৪৯": 4305,
  "৫": 4306,
  "৫)": 4307,
  "৫),": 4308,
  "৫-এ": 4309,
  "৫০": 4310,
  "৫৫": 4311,
  "৫৬": 4312,
  "৬": 4313,
  "৬)": 4314,
  "৬),": 4315,
  "৬-এ": 4316,
  "৬০": 4317,
  "৬৫": 4318,
  "৬৬": 4319,
  "৭": 4320,
  "৭)": 4321,
  "৭),": 4322,
  "৭-এ": 4323,
  "৭০": 4324,
  "৭১": 4325,
  "৭২": 4326,
  "৭৪": 4327,
  "৭৫": 4328,
  "৭৬": 4329,
  "৭৭": 4330,
  "৭৮": 4331,
  "৮": 4332,
  "৮)": 4333,
  "৮),": 4334,
  "৮-এ": 4335,
  "৮০": 4336,
  "৮৮": 4337,
  "৯": 4338,
  "৯)": 4339,
  "৯),": 4340,
  "৯-এ": 4341,
  "৯০": 4342,
  "৯৫": 4343,
  "৯৬": 4344,
  "৯৮": 4345,
  "৯৯": 4346,
  "ৰ": 4347,
  "ৱ": 4348,
  "৲": 4349,
  "৳": 4350,
  "৴": 4351,
  "৵": 4352,
  "৶": 4353,
  "৷": 4354,
  "৸": 4355,
  "৹": 4356,
  "৺": 4357,
  "৻": 4358,
  "ৼ": 4359,
  "৽": 4360,
  "৾": 4361,
  "৿": 4362,
  "ਅ": 4363,
  "ਇ": 4364,
  "ਕ": 4365,
  "ਖ": 4366,
  "ਗ": 4367,
  "ਘ": 4368,
  "ਜ": 4369,
  "ਤ": 4370,
  "ਥ": 4371,
  "ਦ": 4372,
  "ਧ": 4373,
  "ਨ": 4374,
  "ਪ": 4375,
  "ਫ": 4376,
  "ਬ": 4377,
  "ਭ": 4378,
  "ਮ": 4379,
  "ਰ": 4380,
  "ਲ": 4381,
  "ਵ": 4382,
  "ਸ": 4383,
  "ਹ": 4384,
  "਼": 4385,
  "ਾ": 4386,
  "ਿ": 4387,
  "ੀ": 4388,
  "ੁ": 4389,
  "ੂ": 4390,
  "ੇ": 4391,
  "ੈ": 4392,
  "ੋ": 4393,
  "ੌ": 4394,
  "੍": 4395,
  "ੜ": 4396,
  "ੰ": 4397,
  "ੱ": 4398,
  "ં": 4399,
  "ઈ": 4400,
  "ક": 4401,
  "ગ": 4402,
  "જ": 4403,
  "ટ": 4404,
  "ણ": 4405,
  "ત": 4406,
  "દ": 4407,
  "ન": 4408,
  "પ": 4409,
  "બ": 4410,
  "ભ": 4411,
  "મ": 4412,
  "ય": 4413,
  "ર": 4414,
  "લ": 4415,
  "ળ": 4416,
  "વ": 4417,
  "શ": 4418,
  "સ": 4419,
  "હ": 4420,
  "ા": 4421,
  "િ": 4422,
  "ી": 4423,
  "ુ": 4424,
  "ૂ": 4425,
  "ે": 4426,
  "ો": 4427,
  "્": 4428,
  "ଅ": 4429,
  "ଆ": 4430,
  "ଈ": 4431,
  "ଉ": 4432,
  "କ": 4433,
  "ଖ": 4434,
  "ଗ": 4435,
  "ଙ": 4436,
  "ଚ": 4437,
  "ଜ": 4438,
  "ଟ": 4439,
  "ଠ": 4440,
  "ଡ": 4441,
  "ତ": 4442,
  "ଥ": 4443,
  "ଦ": 4444,
  "ନ": 4445,
  "ପ": 4446,
  "ବ": 4447,
  "ମ": 4448,
  "ଯ": 4449,
  "ର": 4450,
  "ଲ": 4451,
  "ଳ": 4452,
  "ଶ": 4453,
  "ଷ": 4454,
  "ସ": 4455,
  "ହ": 4456,
  "଼": 4457,
  "ା": 4458,
  "ି": 4459,
  "ୀ": 4460,
  "ୁ": 4461,
  "େ": 4462,
  "ୋ": 4463,
  "୍": 4464,
  "ୟ": 4465,
  "அ": 4466,
  "ஆ": 4467,
  "உ": 4468,
  "ஊ": 4469,
  "ஒ": 4470,
  "க": 4471,
  "ங": 4472,
  "ச": 4473,
  "ஜ": 4474,
  "ட": 4475,
  "ண": 4476,
  "த": 4477,
  "ந": 4478,
  "ன": 4479,
  "ப": 4480,
  "ம": 4481,
  "ய": 4482,
  "ர": 4483,
  "ற": 4484,
  "ல": 4485,
  "ள": 4486,
  "ழ": 4487,
  "வ": 4488,
  "ஸ": 4489,
  "ஹ": 4490,
  "ா": 4491,
  "ி": 4492,
  "ீ": 4493,
  "ு": 4494,
  "ூ": 4495,
  "ெ": 4496,
  "ே": 4497,
  "ை": 4498,
  "ொ": 4499,
  "ோ": 4500,
  "்": 4501,
  "௹": 4502,
  "ం": 4503,
  "అ": 4504,
  "క": 4505,
  "గ": 4506,
  "చ": 4507,
  "జ": 4508,
  "ఠ": 4509,
  "డ": 4510,
  "ణ": 4511,
  "త": 4512,
  "థ": 4513,
  "ద": 4514,
  "న": 4515,
  "ప": 4516,
  "బ": 4517,
  "మ": 4518,
  "య": 4519,
  "ర": 4520,
  "ల": 4521,
  "ళ": 4522,
  "వ": 4523,
  "శ": 4524,
  "ష": 4525,
  "స": 4526,
  "హ": 4527,
  "ా": 4528,
  "ి": 4529,
  "ీ": 4530,
  "ు": 4531,
  "ూ": 4532,
  "ృ": 4533,
  "ె": 4534,
  "ే": 4535,
  "ై": 4536,
  "ో": 4537,
  "్": 4538,
  "ಂ": 4539,
  "ಅ": 4540,
  "ಆ": 4541,
  "ಏ": 4542,
  "ಕ": 4543,
  "ಗ": 4544,
  "ಜ": 4545,
  "ಞ": 4546,
  "ಟ": 4547,
  "ಡ": 4548,
  "ಣ": 4549,
  "ತ": 4550,
  "ಥ": 4551,
  "ದ": 4552,
  "ನ": 4553,
  "ಪ": 4554,
  "ಬ": 4555,
  "ಮ": 4556,
  "ಯ": 4557,
  "ರ": 4558,
  "ಲ": 4559,
  "ಳ": 4560,
  "ವ": 4561,
  "ಶ": 4562,
  "ಷ": 4563,
  "ಸ": 4564,
  "ಹ": 4565,
  "ಾ": 4566,
  "ಿ": 4567,
  "ು": 4568,
  "ೃ": 4569,
  "ೆ": 4570,
  "ೇ": 4571,
  "ೋ": 4572,
  "್": 4573,
  "೯": 4574,
  "ം": 4575,
  "അ": 4576,
  "ആ": 4577,
  "എ": 4578,
  "ക": 4579,
  "ഗ": 4580,
  "ങ": 4581,
  "ജ": 4582,
  "ട": 4583,
  "ഡ": 4584,
  "ണ": 4585,
  "ത": 4586,
  "ദ": 4587,
  "ധ": 4588,
  "ന": 4589,
  "പ": 4590,
  "ഫ": 4591,
  "ബ": 4592,
  "മ": 4593,
  "യ": 4594,
  "ര": 4595,
  "റ": 4596,
  "ല": 4597,
  "ള": 4598,
  "വ": 4599,
  "ശ": 4600,
  "സ": 4601,
  "ഹ": 4602,
  "ാ": 4603,
  "ി": 4604,
  "ീ": 4605,
  "ു": 4606,
  "ൂ": 4607,
  "െ": 4608,
  "േ": 4609,
  "ൈ": 4610,
  "ൊ": 4611,
  "ോ": 4612,
  "്": 4613,
  "ർ": 4614,
  "ൾ": 4615,
  "ං": 4616,
  "ඃ": 4617,
  "අ": 4618,
  "ඇ": 4619,
  "උ": 4620,
  "එ": 4621,
  "ක": 4622,
  "ඛ": 4623,
  "ග": 4624,
  "ච": 4625,
  "ජ": 4626,
  "ට": 4627,
  "ඩ": 4628,
  "ණ": 4629,
  "ත": 4630,
  "ද": 4631,
  "ධ": 4632,
  "න": 4633,
  "ඳ": 4634,
  "ප": 4635,
  "බ": 4636,
  "ම": 4637,
  "ය": 4638,
  "ර": 4639,
  "ල": 4640,
  "ව": 4641,
  "ශ": 4642,
  "ස": 4643,
  "හ": 4644,
  "ළ": 4645,
  "්": 4646,
  "ා": 4647,
  "ෑ": 4648,
  "ි": 4649,
  "ු": 4650,
  "ෙ": 4651,
  "ේ": 4652,
  "ෛ": 4653,
  "ො": 4654,
  "ෝ": 4655,
  "ෟ": 4656,
  "෴": 4657,
  "ก": 4658,
  "ข": 4659,
  "ค": 4660,
  "ง": 4661,
  "จ": 4662,
  "ช": 4663,
  "ฎ": 4664,
  "ฐ": 4665,
  "ณ": 4666,
  "ด": 4667,
  "ต": 4668,
  "ถ": 4669,
  "ท": 4670,
  "ธ": 4671,
  "น": 4672,
  "บ": 4673,
  "ป": 4674,
  "ผ": 4675,
  "พ": 4676,
  "ภ": 4677,
  "ม": 4678,
  "ย": 4679,
  "ร": 4680,
  "ล": 4681,
  "ว": 4682,
  "ศ": 4683,
  "ษ": 4684,
  "ส": 4685,
  "ห": 4686,
  "ฬ": 4687,
  "อ": 4688,
  "ฮ": 4689,
  "ฯ": 4690,
  "ะ": 4691,
  "ั": 4692,
  "า": 4693,
  "ำ": 4694,
  "ิ": 4695,
  "ี": 4696,
  "ุ": 4697,
  "ู": 4698,
  "เ": 4699,
  "แ": 4700,
  "โ": 4701,
  "ใ": 4702,
  "ไ": 4703,
  "็": 4704,
  "่": 4705,
  "้": 4706,
  "์": 4707,
  "ກ": 4708,
  "ຂ": 4709,
  "ງ": 4710,
  "ຊ": 4711,
  "ດ": 4712,
  "ຕ": 4713,
  "ຖ": 4714,
  "ທ": 4715,
  "ນ": 4716,
  "ບ": 4717,
  "ປ": 4718,
  "ພ": 4719,
  "ມ": 4720,
  "ລ": 4721,
  "ວ": 4722,
  "ສ": 4723,
  "ອ": 4724,
  "ະ": 4725,
  "ັ": 4726,
  "າ": 4727,
  "ິ": 4728,
  "ູ": 4729,
  "ເ": 4730,
  "ແ": 4731,
  "ໄ": 4732,
  "່": 4733,
  "້": 4734,
  "ໝ": 4735,
  "་": 4736,
  "།": 4737,
  "༔": 4738,
  "ཀ": 4739,
  "ག": 4740,
  "ང": 4741,
  "ཅ": 4742,
  "ཆ": 4743,
  "ཎ": 4744,
  "ཏ": 4745,
  "ཐ": 4746,
  "ད": 4747,
  "ན": 4748,
  "པ": 4749,
  "ཕ": 4750,
  "བ": 4751,
  "མ": 4752,
  "ཙ": 4753,
  "ཚ": 4754,
  "ཛ": 4755,
  "ཞ": 4756,
  "འ": 4757,
  "ཡ": 4758,
  "ར": 4759,
  "ལ": 4760,
  "ཤ": 4761,
  "ས": 4762,
  "ཧ": 4763,
  "ཨ": 4764,
  "ཪ": 4765,
  "ཱ": 4766,
  "ི": 4767,
  "ུ": 4768,
  "ེ": 4769,
  "ཻ": 4770,
  "ོ": 4771,
  "ཾ": 4772,
  "ྃ": 4773,
  "ྐ": 4774,
  "ྒ": 4775,
  "ྗ": 4776,
  "ྟ": 4777,
  "ྡ": 4778,
  "ྣ": 4779,
  "ྨ": 4780,
  "ྭ": 4781,
  "ྱ": 4782,
  "ྲ": 4783,
  "ྷ": 4784,
  "က": 4785,
  "ခ": 4786,
  "င": 4787,
  "စ": 4788,
  "ဆ": 4789,
  "ဇ": 4790,
  "ည": 4791,
  "တ": 4792,
  "ဒ": 4793,
  "န": 4794,
  "ပ": 4795,
  "ဖ": 4796,
  "မ": 4797,
  "ယ": 4798,
  "ရ": 4799,
  "သ": 4800,
  "အ": 4801,
  "ာ": 4802,
  "ိ": 4803,
  "ီ": 4804,
  "ု": 4805,
  "ူ": 4806,
  "ေ": 4807,
  "ဲ": 4808,
  "ံ": 4809,
  "့": 4810,
  "း": 4811,
  "်": 4812,
  "ြ": 4813,
  "ွ": 4814,
  "ა": 4815,
  "ბ": 4816,
  "გ": 4817,
  "ე": 4818,
  "ვ": 4819,
  "ზ": 4820,
  "თ": 4821,
  "ი": 4822,
  "კ": 4823,
  "ლ": 4824,
  "მ": 4825,
  "ნ": 4826,
  "ო": 4827,
  "პ": 4828,
  "რ": 4829,
  "ს": 4830,
  "ტ": 4831,
  "უ": 4832,
  "ფ": 4833,
  "ქ": 4834,
  "შ": 4835,
  "ჩ": 4836,
  "ც": 4837,
  "ძ": 4838,
  "ხ": 4839,
  "ል": 4840,
  "ሎ": 4841,
  "ም": 4842,
  "ራ": 4843,
  "ር": 4844,
  "ሴ": 4845,
  "ት": 4846,
  "አ": 4847,
  "ኤ": 4848,
  "ዳ": 4849,
  "ᚫ": 4850,
  "ᚬ": 4851,
  "ក": 4852,
  "ង": 4853,
  "ច": 4854,
  "ទ": 4855,
  "ន": 4856,
  "ប": 4857,
  "ព": 4858,
  "ភ": 4859,
  "ម": 4860,
  "យ": 4861,
  "រ": 4862,
  "ល": 4863,
  "វ": 4864,
  "ស": 4865,
  "ឯ": 4866,
  "ា": 4867,
  "ី": 4868,
  "ុ": 4869,
  "ូ": 4870,
  "េ": 4871,
  "ោ": 4872,
  "ំ": 4873,
  "ះ": 4874,
  "៉": 4875,
  "៍": 4876,
  "្": 4877,
  "ᱚ": 4878,
  "ᱛ": 4879,
  "ᱠ": 4880,
  "ᱤ": 4881,
  "ᱥ": 4882,
  "ᱨ": 4883,
  "ᱩ": 4884,
  "ᱱ": 4885,
  "ᱷ": 4886,
  "ᴀ": 4887,
  "ᴄ": 4888,
  "ᴅ": 4889,
  "ᴇ": 4890,
  "ᴋ": 4891,
  "ᴏ": 4892,
  "ᴛ": 4893,
  "ᴜ": 4894,
  "ᴡ": 4895,
  "ḇ": 4896,
  "ḍ": 4897,
  "Ḏ": 4898,
  "ḏ": 4899,
  "ḑ": 4900,
  "ḕ": 4901,
  "ḗ": 4902,
  "ḡ": 4903,
  "Ḥ": 4904,
  "ḥ": 4905,
  "Ḫ": 4906,
  "ḫ": 4907,
  "ḱ": 4908,
  "ḵ": 4909,
  "ḷ": 4910,
  "ḻ": 4911,
  "ṁ": 4912,
  "ṃ": 4913,
  "ṅ": 4914,
  "ṇ": 4915,
  "ṉ": 4916,
  "ṍ": 4917,
  "ṓ": 4918,
  "Ṛ": 4919,
  "ṛ": 4920,
  "ṟ": 4921,
  "Ṣ": 4922,
  "ṣ": 4923,
  "Ṭ": 4924,
  "ṭ": 4925,
  "ṯ": 4926,
  "ẏ": 4927,
  "ẓ": 4928,
  "ạ": 4929,
  "ả": 4930,
  "ấ": 4931,
  "ẫ": 4932,
  "ậ": 4933,
  "ẹ": 4934,
  "ẻ": 4935,
  "ẽ": 4936,
  "ế": 4937,
  "ề": 4938,
  "ệ": 4939,
  "ỉ": 4940,
  "ị": 4941,
  "ố": 4942,
  "ồ": 4943,
  "ổ": 4944,
  "ộ": 4945,
  "ớ": 4946,
  "ờ": 4947,
  "ợ": 4948,
  "ủ": 4949,
  "ứ": 4950,
  "ữ": 4951,
  "ỳ": 4952,
  "ỹ": 4953,
  "ἀ": 4954,
  "ἄ": 4955,
  "Ἀ": 4956,
  "Ἄ": 4957,
  "ἐ": 4958,
  "ἑ": 4959,
  "ἔ": 4960,
  "ἕ": 4961,
  "Ἐ": 4962,
  "ἥ": 4963,
  "ἰ": 4964,
  "ἱ": 4965,
  "ἴ": 4966,
  "ἷ": 4967,
  "Ἰ": 4968,
  "Ἶ": 4969,
  "ὀ": 4970,
  "ὄ": 4971,
  "ὅ": 4972,
  "Ὀ": 4973,
  "ὐ": 4974,
  "ὑ": 4975,
  "ὔ": 4976,
  "ὕ": 4977,
  "Ὑ": 4978,
  "ὠ": 4979,
  "ὤ": 4980,
  "Ὠ": 4981,
  "ὸ": 4982,
  "ᾰ": 4983,
  "ῆ": 4984,
  "ῖ": 4985,
  "ῡ": 4986,
  "ῦ": 4987,
  "Ῥ": 4988,
  "ῳ": 4989,
  "ῶ": 4990,
  "‌": 4991,
  "‍": 4992,
  "‐": 4993,
  "‑": 4994,
  "‒": 4995,
  "–": 4996,
  "—": 4997,
  "―": 4998,
  "‘": 4999,
  "’": 5000,
  "“": 5001,
  "”": 5002,
  "†": 5003,
  "‡": 5004,
  "•": 5005,
  "…": 5006,
  "′": 5007,
  "″": 5008,
  "⁄": 5009,
  "⁰": 5010,
  "⁶": 5011,
  "₁": 5012,
  "₂": 5013,
  "₃": 5014,
  "₣": 5015,
  "₤": 5016,
  "₦": 5017,
  "₩": 5018,
  "€": 5019,
  "₹": 5020,
  "℃": 5021,
  "℅": 5022,
  "ℑ": 5023,
  "ℓ": 5024,
  "№": 5025,
  "ℜ": 5026,
  "℠": 5027,
  "™": 5028,
  "℧": 5029,
  "ℵ": 5030,
  "⅓": 5031,
  "↑": 5032,
  "→": 5033,
  "↓": 5034,
  "↔": 5035,
  "↦": 5036,
  "↪": 5037,
  "↵": 5038,
  "⇌": 5039,
  "⇒": 5040,
  "∂": 5041,
  "∆": 5042,
  "∇": 5043,
  "∏": 5044,
  "∑": 5045,
  "−": 5046,
  "∗": 5047,
  "√": 5048,
  "∝": 5049,
  "∞": 5050,
  "∠": 5051,
  "∧": 5052,
  "∨": 5053,
  "∩": 5054,
  "∪": 5055,
  "∫": 5056,
  "∼": 5057,
  "≈": 5058,
  "≠": 5059,
  "≡": 5060,
  "≤": 5061,
  "≥": 5062,
  "≪": 5063,
  "≫": 5064,
  "⊂": 5065,
  "⊕": 5066,
  "⊖": 5067,
  "⋅": 5068,
  "⋯": 5069,
  "⌀": 5070,
  "⎯": 5071,
  "ⓠ": 5072,
  "─": 5073,
  "╳": 5074,
  "▁": 5075,
  "▁!": 5076,
  "▁\"": 5077,
  "▁\"অ": 5078,
  "▁\"আ": 5079,
  "▁\"আমি": 5080,
  "▁\"ই": 5081,
  "▁\"উ": 5082,
  "▁\"এ": 5083,
  "▁\"ক": 5084,
  "▁\"গ": 5085,
  "▁\"চ": 5086,
  "▁\"জ": 5087,
  "▁\"ড": 5088,
  "▁\"ত": 5089,
  "▁\"দ": 5090,
  "▁\"দ্য": 5091,
  "▁\"ন": 5092,
  "▁\"প": 5093,
  "▁\"প্র": 5094,
  "▁\"ব": 5095,
  "▁\"বি": 5096,
  "▁\"ম": 5097,
  "▁\"য": 5098,
  "▁\"র": 5099,
  "▁\"শ": 5100,
  "▁\"স": 5101,
  "▁\"হ": 5102,
  "▁$": 5103,
  "▁&": 5104,
  "▁'": 5105,
  "▁''": 5106,
  "▁'অ": 5107,
  "▁'আ": 5108,
  "▁'ক": 5109,
  "▁'প": 5110,
  "▁'ম": 5111,
  "▁'স": 5112,
  "▁(": 5113,
  "▁(\"": 5114,
  "▁()": 5115,
  "▁(),": 5116,
  "▁(,": 5117,
  "▁(1": 5118,
  "▁(19": 5119,
  "▁(199": 5120,
  "▁(2": 5121,
  "▁(200": 5122,
  "▁(;": 5123,
  "▁(A": 5124,
  "▁(B": 5125,
  "▁(C": 5126,
  "▁(D": 5127,
  "▁(E": 5128,
  "▁(H": 5129,
  "▁(I": 5130,
  "▁(L": 5131,
  "▁(M": 5132,
  "▁(N": 5133,
  "▁(P": 5134,
  "▁(R": 5135,
  "▁(S": 5136,
  "▁(T": 5137,
  "▁(অ": 5138,
  "▁(অর্থ": 5139,
  "▁(আ": 5140,
  "▁(আই": 5141,
  "▁(আর": 5142,
  "▁(ই": 5143,
  "▁(ইংরে": 5144,
  "▁(ইংরেজি": 5145,
  "▁(ইংরেজি:": 5146,
  "▁(ইউ": 5147,
  "▁(উ": 5148,
  "▁(এ": 5149,
  "▁(এক": 5150,
  "▁(এন": 5151,
  "▁(এম": 5152,
  "▁(এস": 5153,
  "▁(ও": 5154,
  "▁(ক": 5155,
  "▁(খ": 5156,
  "▁(গ": 5157,
  "▁(চ": 5158,
  "▁(জ": 5159,
  "▁(জ.": 5160,
  "▁(জন্ম": 5161,
  "▁(জন্ম:": 5162,
  "▁(জীব": 5163,
  "▁(জীবিত": 5164,
  "▁(ট": 5165,
  "▁(টি": 5166,
  "▁(ট্র্যাক": 5167,
  "▁(ড": 5168,
  "▁(ত": 5169,
  "▁(দ": 5170,
  "▁(ন": 5171,
  "▁(প": 5172,
  "▁(প্র": 5173,
  "▁(ফ": 5174,
  "▁(ব": 5175,
  "▁(বর্তমান": 5176,
  "▁(বর্তমানে": 5177,
  "▁(বা": 5178,
  "▁(বাংলাদেশ": 5179,
  "▁(বি": 5180,
  "▁(ভ": 5181,
  "▁(ভারত": 5182,
  "▁(ভারত)": 5183,
  "▁(ম": 5184,
  "▁(মৃ": 5185,
  "▁(মৃ.": 5186,
  "▁(মৃত্যু": 5187,
  "▁(য": 5188,
  "▁(যা": 5189,
  "▁(যেমন": 5190,
  "▁(র": 5191,
  "▁(ল": 5192,
  "▁(শ": 5193,
  "▁(স": 5194,
  "▁(সং": 5195,
  "▁(সম": 5196,
  "▁(সি": 5197,
  "▁(হ": 5198,
  "▁(১": 5199,
  "▁(১০": 5200,
  "▁(১৫": 5201,
  "▁(১৬": 5202,
  "▁(১৭": 5203,
  "▁(১৮": 5204,
  "▁(১৯": 5205,
  "▁(১৯০": 5206,
  "▁(১৯৩": 5207,
  "▁(১৯৪": 5208,
  "▁(১৯৫": 5209,
  "▁(১৯৬": 5210,
  "▁(১৯৭": 5211,
  "▁(১৯৮": 5212,
  "▁(১৯৯": 5213,
  "▁(২": 5214,
  "▁(২০": 5215,
  "▁(২০০": 5216,
  "▁(২০০০": 5217,
  "▁(২০০৭)": 5218,
  "▁(২০১": 5219,
  "▁(২০১০)": 5220,
  "▁(২০১৩)": 5221,
  "▁(৩": 5222,
  "▁(৪": 5223,
  "▁(৫": 5224,
  "▁(৬": 5225,
  "▁(৭": 5226,
  "▁(৮": 5227,
  "▁(৯": 5228,
  "▁)": 5229,
  "▁),": 5230,
  "▁*": 5231,
  "▁+": 5232,
  "▁,": 5233,
  "▁-": 5234,
  "▁-এ": 5235,
  "▁-এর": 5236,
  "▁.": 5237,
  "▁...": 5238,
  "▁/": 5239,
  "▁0": 5240,
  "▁1": 5241,
  "▁10": 5242,
  "▁17": 5243,
  "▁18": 5244,
  "▁19": 5245,
  "▁195": 5246,
  "▁196": 5247,
  "▁197": 5248,
  "▁198": 5249,
  "▁199": 5250,
  "▁2": 5251,
  "▁20": 5252,
  "▁200": 5253,
  "▁201": 5254,
  "▁3": 5255,
  "▁4": 5256,
  "▁5": 5257,
  "▁6": 5258,
  "▁7": 5259,
  "▁8": 5260,
  "▁9": 5261,
  "▁:": 5262,
  "▁;": 5263,
  "▁=": 5264,
  "▁A": 5265,
  "▁Ab": 5266,
  "▁Al": 5267,
  "▁Americ": 5268,
  "▁An": 5269,
  "▁Ar": 5270,
  "▁Art": 5271,
  "▁As": 5272,
  "▁B": 5273,
  "▁Book": 5274,
  "▁C": 5275,
  "▁Ch": 5276,
  "▁Cl": 5277,
  "▁Col": 5278,
  "▁Com": 5279,
  "▁Con": 5280,
  "▁Cric": 5281,
  "▁D": 5282,
  "▁De": 5283,
  "▁E": 5284,
  "▁Ed": 5285,
  "▁En": 5286,
  "▁Ex": 5287,
  "▁F": 5288,
  "▁G": 5289,
  "▁Ge": 5290,
  "▁H": 5291,
  "▁He": 5292,
  "▁History": 5293,
  "▁I": 5294,
  "▁II": 5295,
  "▁In": 5296,
  "▁Ind": 5297,
  "▁India": 5298,
  "▁Indian": 5299,
  "▁Intern": 5300,
  "▁Isl": 5301,
  "▁J": 5302,
  "▁Joh": 5303,
  "▁John": 5304,
  "▁K": 5305,
  "▁L": 5306,
  "▁Lib": 5307,
  "▁M": 5308,
  "▁Man": 5309,
  "▁Mar": 5310,
  "▁Mus": 5311,
  "▁N": 5312,
  "▁New": 5313,
  "▁O": 5314,
  "▁Off": 5315,
  "▁Official": 5316,
  "▁On": 5317,
  "▁Or": 5318,
  "▁P": 5319,
  "▁Ph": 5320,
  "▁Pl": 5321,
  "▁Pr": 5322,
  "▁Press": 5323,
  "▁Press,": 5324,
  "▁Pro": 5325,
  "▁Publ": 5326,
  "▁Q": 5327,
  "▁R": 5328,
  "▁Re": 5329,
  "▁Res": 5330,
  "▁S": 5331,
  "▁Sch": 5332,
  "▁Sci": 5333,
  "▁Sh": 5334,
  "▁So": 5335,
  "▁Soci": 5336,
  "▁St": 5337,
  "▁T": 5338,
  "▁Th": 5339,
  "▁The": 5340,
  "▁U": 5341,
  "▁Un": 5342,
  "▁Univers": 5343,
  "▁University": 5344,
  "▁V": 5345,
  "▁W": 5346,
  "▁World": 5347,
  "▁X": 5348,
  "▁Y": 5349,
  "▁York": 5350,
  "▁Z": 5351,
  "▁[": 5352,
  "▁a": 5353,
  "▁al": 5354,
  "▁align": 5355,
  "▁an": 5356,
  "▁and": 5357,
  "▁as": 5358,
  "▁at": 5359,
  "▁b": 5360,
  "▁be": 5361,
  "▁by": 5362,
  "▁c": 5363,
  "▁ch": 5364,
  "▁com": 5365,
  "▁d": 5366,
  "▁de": 5367,
  "▁e": 5368,
  "▁ed": 5369,
  "▁ex": 5370,
  "▁f": 5371,
  "▁for": 5372,
  "▁from": 5373,
  "▁g": 5374,
  "▁h": 5375,
  "▁he": 5376,
  "▁in": 5377,
  "▁is": 5378,
  "▁j": 5379,
  "▁k": 5380,
  "▁l": 5381,
  "▁m": 5382,
  "▁n": 5383,
  "▁o": 5384,
  "▁of": 5385,
  "▁on": 5386,
  "▁or": 5387,
  "▁p": 5388,
  "▁pro": 5389,
  "▁r": 5390,
  "▁re": 5391,
  "▁s": 5392,
  "▁st": 5393,
  "▁style=\"": 5394,
  "▁t": 5395,
  "▁th": 5396,
  "▁the": 5397,
  "▁to": 5398,
  "▁v": 5399,
  "▁w": 5400,
  "▁website": 5401,
  "▁with": 5402,
  "▁y": 5403,
  "▁{": 5404,
  "▁|": 5405,
  "▁|-": 5406,
  "▁||": 5407,
  "▁ال": 5408,
  "▁অ": 5409,
  "▁অংশ": 5410,
  "▁অংশ।": 5411,
  "▁অংশগ্রহণ": 5412,
  "▁অংশগ্রহণকারী": 5413,
  "▁অংশগ্রহণের": 5414,
  "▁অংশটি": 5415,
  "▁অংশীদার": 5416,
  "▁অংশে": 5417,
  "▁অংশের": 5418,
  "▁অক": 5419,
  "▁অক্ট": 5420,
  "▁অক্টোব": 5421,
  "▁অক্টোবর": 5422,
  "▁অক্টোবর,": 5423,
  "▁অক্টোবর-ডিসেম্বর": 5424,
  "▁অক্টোবরে": 5425,
  "▁অক্ষ": 5426,
  "▁অক্ষম": 5427,
  "▁অক্ষর": 5428,
  "▁অক্ষাংশ": 5429,
  "▁অক্স": 5430,
  "▁অক্সফোর্ড": 5431,
  "▁অক্সাইড": 5432,
  "▁অক্সিজ": 5433,
  "▁অক্সিজেন": 5434,
  "▁অগ": 5435,
  "▁অগ্ন": 5436,
  "▁অগ্নি": 5437,
  "▁অগ্র": 5438,
  "▁অগ্রগতি": 5439,
  "▁অগ্রসর": 5440,
  "▁অঙ্ক": 5441,
  "▁অঙ্গ": 5442,
  "▁অঙ্গরাজ": 5443,
  "▁অঙ্গরাজ্যের": 5444,
  "▁অজ": 5445,
  "▁অজানা": 5446,
  "▁অজ্ঞ": 5447,
  "▁অঞ্চ": 5448,
  "▁অঞ্চল": 5449,
  "▁অঞ্চল,": 5450,
  "▁অঞ্চল।": 5451,
  "▁অঞ্চলটি": 5452,
  "▁অঞ্চলে": 5453,
  "▁অঞ্চলের": 5454,
  "▁অট": 5455,
  "▁অটো": 5456,
  "▁অড": 5457,
  "▁অডিও": 5458,
  "▁অণ": 5459,
  "▁অণু": 5460,
  "▁অত": 5461,
  "▁অতঃপর": 5462,
  "▁অতি": 5463,
  "▁অতিক্রম": 5464,
  "▁অতিথি": 5465,
  "▁অতিবাহিত": 5466,
  "▁অতিরিক্ত": 5467,
  "▁অতীত": 5468,
  "▁অত্য": 5469,
  "▁অত্যন্ত": 5470,
  "▁অত্যা": 5471,
  "▁অথ": 5472,
  "▁অথবা": 5473,
  "▁অদ": 5474,
  "▁অদ্ব": 5475,
  "▁অধ": 5476,
  "▁অধি": 5477,
  "▁অধিক": 5478,
  "▁অধিকাংশ": 5479,
  "▁অধিকাংশই": 5480,
  "▁অধিকার": 5481,
  "▁অধিকারী": 5482,
  "▁অধিকারের": 5483,
  "▁অধিগ্রহণ": 5484,
  "▁অধিদ": 5485,
  "▁অধিদপ্তর": 5486,
  "▁অধিন": 5487,
  "▁অধিনায়ক": 5488,
  "▁অধিনায়কের": 5489,
  "▁অধিব": 5490,
  "▁অধিবাস": 5491,
  "▁অধিভুক্ত": 5492,
  "▁অধিষ্ঠিত": 5493,
  "▁অধীন": 5494,
  "▁অধীনস্থ": 5495,
  "▁অধীনে": 5496,
  "▁অধ্য": 5497,
  "▁অধ্যক্ষ": 5498,
  "▁অধ্যয়ন": 5499,
  "▁অধ্যয়নের": 5500,
  "▁অধ্যাপ": 5501,
  "▁অধ্যাপক": 5502,
  "▁অধ্যায়": 5503,
  "▁অন": 5504,
  "▁অনন্ত": 5505,
  "▁অনন্য": 5506,
  "▁অনলাইন": 5507,
  "▁অনিয়": 5508,
  "▁অনু": 5509,
  "▁অনুচ্ছেদ": 5510,
  "▁অনুপ": 5511,
  "▁অনুপস্থিত": 5512,
  "▁অনুপাত": 5513,
  "▁অনুপ্র": 5514,
  "▁অনুপ্রাণিত": 5515,
  "▁অনুপ্রের": 5516,
  "▁অনুবাদ": 5517,
  "▁অনুবাদসহ": 5518,
  "▁অনুভব": 5519,
  "▁অনুভূ": 5520,
  "▁অনুভূতি": 5521,
  "▁অনুম": 5522,
  "▁অনুমতি": 5523,
  "▁অনুমান": 5524,
  "▁অনুমোদ": 5525,
  "▁অনুমোদন": 5526,
  "▁অনুমোদিত": 5527,
  "▁অনুযায়ী": 5528,
  "▁অনুযায়ী,": 5529,
  "▁অনুর": 5530,
  "▁অনুরূপ": 5531,
  "▁অনুরোধ": 5532,
  "▁অনুশীল": 5533,
  "▁অনুশীলন": 5534,
  "▁অনুষদ": 5535,
  "▁অনুষ্ঠ": 5536,
  "▁অনুষ্ঠান": 5537,
  "▁অনুষ্ঠানে": 5538,
  "▁অনুষ্ঠানের": 5539,
  "▁অনুষ্ঠিত": 5540,
  "▁অনুস": 5541,
  "▁অনুসন্ধান": 5542,
  "▁অনুসরণ": 5543,
  "▁অনুসারী": 5544,
  "▁অনুসারে": 5545,
  "▁অনুসারে,": 5546,
  "▁অনূ": 5547,
  "▁অনূর্ধ্ব": 5548,
  "▁অনূর্ধ্ব-১৯": 5549,
  "▁অনূর্ধ্ব-২": 5550,
  "▁অনূর্ধ্ব-২০": 5551,
  "▁অনূর্ধ্ব-২১": 5552,
  "▁অনূর্ধ্ব-২৩": 5553,
  "▁অনেক": 5554,
  "▁অনেকগুলি": 5555,
  "▁অনেকগুলো": 5556,
  "▁অনেকটা": 5557,
  "▁অনেকে": 5558,
  "▁অনেকেই": 5559,
  "▁অন্ত": 5560,
  "▁অন্তঃ": 5561,
  "▁অন্তঃর": 5562,
  "▁অন্তত": 5563,
  "▁অন্তর": 5564,
  "▁অন্তর্গত": 5565,
  "▁অন্তর্গত।": 5566,
  "▁অন্তর্ব": 5567,
  "▁অন্তর্ভ": 5568,
  "▁অন্তর্ভুক্ত": 5569,
  "▁অন্তর্ভুক্ত।": 5570,
  "▁অন্ধ": 5571,
  "▁অন্ধ্র": 5572,
  "▁অন্ধ্রপ্রদেশ": 5573,
  "▁অন্য": 5574,
  "▁অন্যতম": 5575,
  "▁অন্যতম।": 5576,
  "▁অন্যদিকে": 5577,
  "▁অন্যদিকে,": 5578,
  "▁অন্যদের": 5579,
  "▁অন্যান্য": 5580,
  "▁অপ": 5581,
  "▁অপর": 5582,
  "▁অপরদিকে": 5583,
  "▁অপরাজিত": 5584,
  "▁অপরাধ": 5585,
  "▁অপরাধের": 5586,
  "▁অপরি": 5587,
  "▁অপরের": 5588,
  "▁অপর্যালোচিত": 5589,
  "▁অপসারণ": 5590,
  "▁অপহ": 5591,
  "▁অপহরণ": 5592,
  "▁অপার": 5593,
  "▁অপারেটিং": 5594,
  "▁অপারেশন": 5595,
  "▁অপেক্ষ": 5596,
  "▁অপেক্ষা": 5597,
  "▁অপেক্ষাকৃত": 5598,
  "▁অপ্র": 5599,
  "▁অফ": 5600,
  "▁অফিস": 5601,
  "▁অফিসার": 5602,
  "▁অফিসিয়াল": 5603,
  "▁অফিসে": 5604,
  "▁অব": 5605,
  "▁অবকাঠ": 5606,
  "▁অবকাঠামো": 5607,
  "▁অবত": 5608,
  "▁অবতরণ": 5609,
  "▁অবতার": 5610,
  "▁অবতীর্ণ": 5611,
  "▁অবদান": 5612,
  "▁অবদানের": 5613,
  "▁অবধি": 5614,
  "▁অবন": 5615,
  "▁অববাহ": 5616,
  "▁অবর": 5617,
  "▁অবরোধ": 5618,
  "▁অবল": 5619,
  "▁অবলম্ব": 5620,
  "▁অবলম্বনে": 5621,
  "▁অবশিষ্ট": 5622,
  "▁অবশেষে": 5623,
  "▁অবশ্য": 5624,
  "▁অবশ্যই": 5625,
  "▁অবসর": 5626,
  "▁অবস্থ": 5627,
  "▁অবস্থা": 5628,
  "▁অবস্থান": 5629,
  "▁অবস্থান।": 5630,
  "▁অবস্থানে": 5631,
  "▁অবস্থানের": 5632,
  "▁অবস্থায়": 5633,
  "▁অবস্থার": 5634,
  "▁অবস্থিত": 5635,
  "▁অবস্থিত,": 5636,
  "▁অবস্থিত।": 5637,
  "▁অবস্থিত৷": 5638,
  "▁অবি": 5639,
  "▁অবৈধ": 5640,
  "▁অব্দ": 5641,
  "▁অব্যা": 5642,
  "▁অব্যাহত": 5643,
  "▁অভ": 5644,
  "▁অভয়": 5645,
  "▁অভাব": 5646,
  "▁অভি": 5647,
  "▁অভিজাত": 5648,
  "▁অভিজ্ঞ": 5649,
  "▁অভিজ্ঞতা": 5650,
  "▁অভিজ্ঞতার": 5651,
  "▁অভিধান": 5652,
  "▁অভিন": 5653,
  "▁অভিনয়": 5654,
  "▁অভিনয়শিল্পী": 5655,
  "▁অভিনয়ে": 5656,
  "▁অভিনয়ের": 5657,
  "▁অভিনীত": 5658,
  "▁অভিনেতা": 5659,
  "▁অভিনেতা।": 5660,
  "▁অভিনেত্র": 5661,
  "▁অভিনেত্রী": 5662,
  "▁অভিনেত্রী,": 5663,
  "▁অভিনেত্রী।": 5664,
  "▁অভিব": 5665,
  "▁অভিবাসী": 5666,
  "▁অভিভ": 5667,
  "▁অভিম": 5668,
  "▁অভিমুখ": 5669,
  "▁অভিয": 5670,
  "▁অভিযান": 5671,
  "▁অভিযানে": 5672,
  "▁অভিযানের": 5673,
  "▁অভিযুক্ত": 5674,
  "▁অভিযোগ": 5675,
  "▁অভিযোগে": 5676,
  "▁অভিশ": 5677,
  "▁অভিষ": 5678,
  "▁অভিষেক": 5679,
  "▁অভিহিত": 5680,
  "▁অভ্যন্ত": 5681,
  "▁অভ্যন্তরীণ": 5682,
  "▁অভ্যন্তরে": 5683,
  "▁অভ্যুত্থ": 5684,
  "▁অম": 5685,
  "▁অমর": 5686,
  "▁অমিত": 5687,
  "▁অমৃত": 5688,
  "▁অয": 5689,
  "▁অর": 5690,
  "▁অরণ": 5691,
  "▁অরুণ": 5692,
  "▁অরুণাচল": 5693,
  "▁অর্": 5694,
  "▁অর্জ": 5695,
  "▁অর্জন": 5696,
  "▁অর্জনের": 5697,
  "▁অর্জুন": 5698,
  "▁অর্ডার": 5699,
  "▁অর্থ": 5700,
  "▁অর্থনীতি": 5701,
  "▁অর্থনীতিতে": 5702,
  "▁অর্থনীতিবিদ": 5703,
  "▁অর্থনীতির": 5704,
  "▁অর্থনৈতিক": 5705,
  "▁অর্থাৎ": 5706,
  "▁অর্থে": 5707,
  "▁অর্থের": 5708,
  "▁অর্ধ": 5709,
  "▁অর্ধেক": 5710,
  "▁অল": 5711,
  "▁অলিম্প": 5712,
  "▁অলিম্পিক": 5713,
  "▁অলিম্পিকে": 5714,
  "▁অলিম্পিকের": 5715,
  "▁অল্প": 5716,
  "▁অশ": 5717,
  "▁অশোক": 5718,
  "▁অশ্ব": 5719,
  "▁অষ্ট": 5720,
  "▁অষ্টম": 5721,
  "▁অষ্টাদশ": 5722,
  "▁অস": 5723,
  "▁অসং": 5724,
  "▁অসংখ্য": 5725,
  "▁অসম": 5726,
  "▁অসমীয়া": 5727,
  "▁অসম্প": 5728,
  "▁অসম্পূর্ণ": 5729,
  "▁অসম্ভব": 5730,
  "▁অসাধারণ": 5731,
  "▁অসীম": 5732,
  "▁অসু": 5733,
  "▁অসুস্থ": 5734,
  "▁অস্ট্র": 5735,
  "▁অস্ট্রেল": 5736,
  "▁অস্ট্রেলিয়া": 5737,
  "▁অস্ট্রেলিয়া,": 5738,
  "▁অস্ট্রেলিয়ান": 5739,
  "▁অস্ট্রেলিয়ায়": 5740,
  "▁অস্ট্রেলিয়ার": 5741,
  "▁অস্ট্রেলীয়": 5742,
  "▁অস্ত": 5743,
  "▁অস্তিত্ব": 5744,
  "▁অস্ত্র": 5745,
  "▁অস্থ": 5746,
  "▁অস্থায়ী": 5747,
  "▁অস্ব": 5748,
  "▁অস্বাভাবিক": 5749,
  "▁অস্বীকার": 5750,
  "▁অহ": 5751,
  "▁অ্য": 5752,
  "▁অ্যা": 5753,
  "▁অ্যাওয়ার্ড": 5754,
  "▁অ্যাক": 5755,
  "▁অ্যাকশন": 5756,
  "▁অ্যাকা": 5757,
  "▁অ্যাকাউ": 5758,
  "▁অ্যাকাড": 5759,
  "▁অ্যাক্স": 5760,
  "▁অ্যাঞ্জেল": 5761,
  "▁অ্যাট": 5762,
  "▁অ্যাড": 5763,
  "▁অ্যাডাম": 5764,
  "▁অ্যাথ": 5765,
  "▁অ্যান": 5766,
  "▁অ্যানিম": 5767,
  "▁অ্যান্ট": 5768,
  "▁অ্যান্টি": 5769,
  "▁অ্যান্ড": 5770,
  "▁অ্যান্ড্র": 5771,
  "▁অ্যান্ড্রয়েড": 5772,
  "▁অ্যাপ": 5773,
  "▁অ্যাপল": 5774,
  "▁অ্যাপ্লিক": 5775,
  "▁অ্যাপ্লিকেশন": 5776,
  "▁অ্যাব": 5777,
  "▁অ্যাম": 5778,
  "▁অ্যার": 5779,
  "▁অ্যাল": 5780,
  "▁অ্যালব": 5781,
  "▁অ্যালবাম": 5782,
  "▁অ্যালান": 5783,
  "▁অ্যাশ": 5784,
  "▁অ্যাস": 5785,
  "▁অ্যাসিড": 5786,
  "▁অ্যাসোসিয়ে": 5787,
  "▁অ্যাসোসিয়েশন": 5788,
  "▁অ্যাসোসিয়েশনের": 5789,
  "▁আ": 5790,
  "▁আঁ": 5791,
  "▁আঁকা": 5792,
  "▁আংশ": 5793,
  "▁আংশিক": 5794,
  "▁আই": 5795,
  "▁আইএস": 5796,
  "▁আইও": 5797,
  "▁আইড": 5798,
  "▁আইন": 5799,
  "▁আইন,": 5800,
  "▁আইনজীবী": 5801,
  "▁আইনি": 5802,
  "▁আইনে": 5803,
  "▁আইনের": 5804,
  "▁আইপ": 5805,
  "▁আইফোন": 5806,
  "▁আইয়": 5807,
  "▁আইয়ুব": 5808,
  "▁আইরিশ": 5809,
  "▁আইল্যান্ড": 5810,
  "▁আইস": 5811,
  "▁আইসিসি": 5812,
  "▁আউ": 5813,
  "▁আউট": 5814,
  "▁আও": 5815,
  "▁আওতা": 5816,
  "▁আওতাধীন": 5817,
  "▁আওতাধীন।": 5818,
  "▁আওতায়": 5819,
  "▁আওয়": 5820,
  "▁আওয়ামী": 5821,
  "▁আক": 5822,
  "▁আকবর": 5823,
  "▁আকর্ষণ": 5824,
  "▁আকর্ষণীয়": 5825,
  "▁আকা": 5826,
  "▁আকার": 5827,
  "▁আকারে": 5828,
  "▁আকারের": 5829,
  "▁আকাশ": 5830,
  "▁আকৃতি": 5831,
  "▁আকৃতির": 5832,
  "▁আকৃষ্ট": 5833,
  "▁আক্রম": 5834,
  "▁আক্রমণ": 5835,
  "▁আক্রমণভাগের": 5836,
  "▁আক্রমণের": 5837,
  "▁আক্রান্ত": 5838,
  "▁আক্ষরিক": 5839,
  "▁আখ": 5840,
  "▁আখ্য": 5841,
  "▁আখ্যায়িত": 5842,
  "▁আগ": 5843,
  "▁আগত": 5844,
  "▁আগমন": 5845,
  "▁আগস্ট": 5846,
  "▁আগস্ট,": 5847,
  "▁আগস্টে": 5848,
  "▁আগুন": 5849,
  "▁আগে": 5850,
  "▁আগে,": 5851,
  "▁আগেই": 5852,
  "▁আগের": 5853,
  "▁আগ্নেয়": 5854,
  "▁আগ্নেয়গির": 5855,
  "▁আগ্র": 5856,
  "▁আগ্রহ": 5857,
  "▁আগ্রহী": 5858,
  "▁আঘ": 5859,
  "▁আঘাত": 5860,
  "▁আঙ্গ": 5861,
  "▁আচ": 5862,
  "▁আচরণ": 5863,
  "▁আচার": 5864,
  "▁আচ্ছ": 5865,
  "▁আছে": 5866,
  "▁আছে,": 5867,
  "▁আছে।": 5868,
  "▁আছেন।": 5869,
  "▁আজ": 5870,
  "▁আজও": 5871,
  "▁আজম": 5872,
  "▁আজাদ": 5873,
  "▁আজারবাইজ": 5874,
  "▁আজিজ": 5875,
  "▁আজীবন": 5876,
  "▁আঞ্চলিক": 5877,
  "▁আট": 5878,
  "▁আটক": 5879,
  "▁আটকে": 5880,
  "▁আটটি": 5881,
  "▁আটল": 5882,
  "▁আটলান্ট": 5883,
  "▁আটলান্টিক": 5884,
  "▁আঠ": 5885,
  "▁আড়": 5886,
  "▁আণ": 5887,
  "▁আণবিক": 5888,
  "▁আত": 5889,
  "▁আত্ম": 5890,
  "▁আত্মপ্রকাশ": 5891,
  "▁আত্মসম": 5892,
  "▁আত্মহত্যা": 5893,
  "▁আত্মা": 5894,
  "▁আত্মার": 5895,
  "▁আত্মীয়": 5896,
  "▁আদ": 5897,
  "▁আদম": 5898,
  "▁আদমশুম": 5899,
  "▁আদমশুমারি": 5900,
  "▁আদর্শ": 5901,
  "▁আদায়": 5902,
  "▁আদাল": 5903,
  "▁আদালত": 5904,
  "▁আদালতে": 5905,
  "▁আদালতের": 5906,
  "▁আদি": 5907,
  "▁আদিবাসী": 5908,
  "▁আদেশ": 5909,
  "▁আধ": 5910,
  "▁আধান": 5911,
  "▁আধিপত্য": 5912,
  "▁আধুনিক": 5913,
  "▁আধ্যাত্ম": 5914,
  "▁আধ্যাত্মিক": 5915,
  "▁আন": 5916,
  "▁আনতে": 5917,
  "▁আনন্দ": 5918,
  "▁আনা": 5919,
  "▁আনার": 5920,
  "▁আনু": 5921,
  "▁আনুগত্য": 5922,
  "▁আনুমানিক": 5923,
  "▁আনুষ্ঠান": 5924,
  "▁আনুষ্ঠানিক": 5925,
  "▁আনুষ্ঠানিকভাবে": 5926,
  "▁আনোয়ার": 5927,
  "▁আন্ডার": 5928,
  "▁আন্ত": 5929,
  "▁আন্তঃ": 5930,
  "▁আন্তর্জাত": 5931,
  "▁আন্তর্জাতিক": 5932,
  "▁আন্তর্জাতিকে": 5933,
  "▁আন্দ": 5934,
  "▁আন্দোল": 5935,
  "▁আন্দোলন": 5936,
  "▁আন্দোলনে": 5937,
  "▁আন্দোলনের": 5938,
  "▁আপ": 5939,
  "▁আপনার": 5940,
  "▁আপনি": 5941,
  "▁আপাত": 5942,
  "▁আপেক্ষ": 5943,
  "▁আপেক্ষিক": 5944,
  "▁আফ": 5945,
  "▁আফগান": 5946,
  "▁আফগানিস্ত": 5947,
  "▁আফগানিস্তান": 5948,
  "▁আফগানিস্তানে": 5949,
  "▁আফগানিস্তানের": 5950,
  "▁আফ্র": 5951,
  "▁আফ্রিক": 5952,
  "▁আফ্রিকা": 5953,
  "▁আফ্রিকান": 5954,
  "▁আফ্রিকায়": 5955,
  "▁আফ্রিকার": 5956,
  "▁আব": 5957,
  "▁আবদ": 5958,
  "▁আবদুল": 5959,
  "▁আবদুল্লাহ": 5960,
  "▁আবদ্ধ": 5961,
  "▁আবর্ত": 5962,
  "▁আবহা": 5963,
  "▁আবহাওয়া": 5964,
  "▁আবার": 5965,
  "▁আবারও": 5966,
  "▁আবাস": 5967,
  "▁আবাসিক": 5968,
  "▁আবি": 5969,
  "▁আবির্ভ": 5970,
  "▁আবির্ভূত": 5971,
  "▁আবিষ্কার": 5972,
  "▁আবিষ্কারের": 5973,
  "▁আবিষ্কৃত": 5974,
  "▁আবু": 5975,
  "▁আবুল": 5976,
  "▁আবেগ": 5977,
  "▁আবেদন": 5978,
  "▁আব্দ": 5979,
  "▁আব্দুর": 5980,
  "▁আব্দুল": 5981,
  "▁আব্দুল্লাহ": 5982,
  "▁আব্ব": 5983,
  "▁আব্বাস": 5984,
  "▁আব্বাসীয়": 5985,
  "▁আভ": 5986,
  "▁আম": 5987,
  "▁আমন্ত্রণ": 5988,
  "▁আমরা": 5989,
  "▁আমলে": 5990,
  "▁আমাকে": 5991,
  "▁আমাদের": 5992,
  "▁আমার": 5993,
  "▁আমি": 5994,
  "▁আমিন": 5995,
  "▁আমির": 5996,
  "▁আমিরাত": 5997,
  "▁আমিরাতের": 5998,
  "▁আমের": 5999,
  "▁আমেরিকা": 6000,
  "▁আমেরিকান": 6001,
  "▁আমেরিকায়": 6002,
  "▁আমেরিকার": 6003,
  "▁আম্পায়ার": 6004,
  "▁আম্ব": 6005,
  "▁আয়": 6006,
  "▁আয়ত": 6007,
  "▁আয়তন": 6008,
  "▁আয়তনের": 6009,
  "▁আয়ন": 6010,
  "▁আয়াত": 6011,
  "▁আয়ার": 6012,
  "▁আয়ারল্যান্ড": 6013,
  "▁আয়ারল্যান্ডের": 6014,
  "▁আয়ু": 6015,
  "▁আয়ের": 6016,
  "▁আয়োজ": 6017,
  "▁আয়োজন": 6018,
  "▁আয়োজিত": 6019,
  "▁আর": 6020,
  "▁আর.": 6021,
  "▁আরও": 6022,
  "▁আরব": 6023,
  "▁আরবি": 6024,
  "▁আরবে": 6025,
  "▁আরবের": 6026,
  "▁আরম্ভ": 6027,
  "▁আরা": 6028,
  "▁আরে": 6029,
  "▁আরেক": 6030,
  "▁আরেকটি": 6031,
  "▁আরো": 6032,
  "▁আরোপ": 6033,
  "▁আরোহণ": 6034,
  "▁আর্": 6035,
  "▁আর্ক": 6036,
  "▁আর্জ": 6037,
  "▁আর্জেন্টি": 6038,
  "▁আর্জেন্টিনা": 6039,
  "▁আর্জেন্টিনার": 6040,
  "▁আর্ট": 6041,
  "▁আর্টস": 6042,
  "▁আর্থ": 6043,
  "▁আর্থার": 6044,
  "▁আর্থিক": 6045,
  "▁আর্দ": 6046,
  "▁আর্দ্র": 6047,
  "▁আর্ম": 6048,
  "▁আর্মি": 6049,
  "▁আর্মেন": 6050,
  "▁আর্স": 6051,
  "▁আর্সেন": 6052,
  "▁আল": 6053,
  "▁আল-": 6054,
  "▁আল-আ": 6055,
  "▁আল-ম": 6056,
  "▁আল-হ": 6057,
  "▁আলফ": 6058,
  "▁আলম": 6059,
  "▁আলাদা": 6060,
  "▁আলি": 6061,
  "▁আলিয়া": 6062,
  "▁আলী": 6063,
  "▁আলীর": 6064,
  "▁আলে": 6065,
  "▁আলেক": 6066,
  "▁আলেকজ": 6067,
  "▁আলেকজান্ডার": 6068,
  "▁আলো": 6069,
  "▁আলোক": 6070,
  "▁আলোকচিত্র": 6071,
  "▁আলোচ": 6072,
  "▁আলোচনা": 6073,
  "▁আলোচনার": 6074,
  "▁আলোর": 6075,
  "▁আল্লাহ": 6076,
  "▁আল্লাহর": 6077,
  "▁আশ": 6078,
  "▁আশরাফ": 6079,
  "▁আশা": 6080,
  "▁আশেপ": 6081,
  "▁আশেপাশে": 6082,
  "▁আশেপাশের": 6083,
  "▁আশ্রয়": 6084,
  "▁আস": 6085,
  "▁আসছে।": 6086,
  "▁আসতে": 6087,
  "▁আসন": 6088,
  "▁আসনটি": 6089,
  "▁আসনে": 6090,
  "▁আসনের": 6091,
  "▁আসন্ন": 6092,
  "▁আসর": 6093,
  "▁আসরে": 6094,
  "▁আসল": 6095,
  "▁আসলে": 6096,
  "▁আসা": 6097,
  "▁আসাম": 6098,
  "▁আসামের": 6099,
  "▁আসার": 6100,
  "▁আসে": 6101,
  "▁আসে,": 6102,
  "▁আসে।": 6103,
  "▁আসেন": 6104,
  "▁আসেন।": 6105,
  "▁আস্ত": 6106,
  "▁আহ": 6107,
  "▁আহত": 6108,
  "▁আহম": 6109,
  "▁আহমদ": 6110,
  "▁আহমে": 6111,
  "▁আহমেদ": 6112,
  "▁আহসান": 6113,
  "▁আহ্বান": 6114,
  "▁ই": 6115,
  "▁ইংরে": 6116,
  "▁ইংরেজ": 6117,
  "▁ইংরেজি": 6118,
  "▁ইংরেজিতে": 6119,
  "▁ইংল": 6120,
  "▁ইংলিশ": 6121,
  "▁ইংল্যান্ড": 6122,
  "▁ইংল্যান্ডে": 6123,
  "▁ইংল্যান্ডের": 6124,
  "▁ইউ": 6125,
  "▁ইউএস": 6126,
  "▁ইউক্র": 6127,
  "▁ইউক্রেনীয়": 6128,
  "▁ইউটিউ": 6129,
  "▁ইউন": 6130,
  "▁ইউনাইটেড": 6131,
  "▁ইউনি": 6132,
  "▁ইউনিট": 6133,
  "▁ইউনিভার্স": 6134,
  "▁ইউনিভার্সিটি": 6135,
  "▁ইউনিয়": 6136,
  "▁ইউনিয়ন": 6137,
  "▁ইউনিয়ন,": 6138,
  "▁ইউনিয়ন।": 6139,
  "▁ইউনিয়নে": 6140,
  "▁ইউনিয়নের": 6141,
  "▁ইউনে": 6142,
  "▁ইউর": 6143,
  "▁ইউরো": 6144,
  "▁ইউরোপ": 6145,
  "▁ইউরোপীয়": 6146,
  "▁ইউরোপে": 6147,
  "▁ইউরোপের": 6148,
  "▁ইউসু": 6149,
  "▁ইউসুফ": 6150,
  "▁ইক": 6151,
  "▁ইকবাল": 6152,
  "▁ইঙ্গ": 6153,
  "▁ইঙ্গিত": 6154,
  "▁ইচ্ছ": 6155,
  "▁ইচ্ছা": 6156,
  "▁ইজ": 6157,
  "▁ইঞ্চ": 6158,
  "▁ইঞ্চি": 6159,
  "▁ইঞ্জ": 6160,
  "▁ইঞ্জিন": 6161,
  "▁ইঞ্জিনিয়ার": 6162,
  "▁ইঞ্জিনিয়ারিং": 6163,
  "▁ইট": 6164,
  "▁ইত": 6165,
  "▁ইতাল": 6166,
  "▁ইতালি": 6167,
  "▁ইতালির": 6168,
  "▁ইতালীয়": 6169,
  "▁ইতিবাচক": 6170,
  "▁ইতিম": 6171,
  "▁ইতিহাস": 6172,
  "▁ইতিহাসবিদ": 6173,
  "▁ইতিহাসে": 6174,
  "▁ইতিহাসের": 6175,
  "▁ইত্য": 6176,
  "▁ইত্যাদ": 6177,
  "▁ইত্যাদি": 6178,
  "▁ইত্যাদি।": 6179,
  "▁ইত্যাদির": 6180,
  "▁ইথ": 6181,
  "▁ইন": 6182,
  "▁ইনক": 6183,
  "▁ইনফ": 6184,
  "▁ইনস্টি": 6185,
  "▁ইনস্টিটিউট": 6186,
  "▁ইনস্টিটিউটের": 6187,
  "▁ইনিং": 6188,
  "▁ইনিংস": 6189,
  "▁ইনিংসে": 6190,
  "▁ইন্ট": 6191,
  "▁ইন্টার": 6192,
  "▁ইন্টারন": 6193,
  "▁ইন্টারনেট": 6194,
  "▁ইন্টারন্যাশনাল": 6195,
  "▁ইন্ড": 6196,
  "▁ইন্ডাস্ট": 6197,
  "▁ইন্ডাস্ট্র": 6198,
  "▁ইন্ডিজ": 6199,
  "▁ইন্ডিজের": 6200,
  "▁ইন্ডিয়া": 6201,
  "▁ইন্ডিয়ান": 6202,
  "▁ইন্দ": 6203,
  "▁ইন্দির": 6204,
  "▁ইন্দিরা": 6205,
  "▁ইন্দোনেশ": 6206,
  "▁ইন্দোনেশিয়া": 6207,
  "▁ইন্দোনেশিয়ার": 6208,
  "▁ইন্দ্র": 6209,
  "▁ইন্স": 6210,
  "▁ইন্সটি": 6211,
  "▁ইন্সটিটিউট": 6212,
  "▁ইফ": 6213,
  "▁ইবন": 6214,
  "▁ইবনে": 6215,
  "▁ইব্র": 6216,
  "▁ইব্রাহ": 6217,
  "▁ইব্রাহিম": 6218,
  "▁ইভ": 6219,
  "▁ইভেন্ট": 6220,
  "▁ইম": 6221,
  "▁ইমাম": 6222,
  "▁ইম্প": 6223,
  "▁ইয়": 6224,
  "▁ইয়র্ক": 6225,
  "▁ইয়া": 6226,
  "▁ইয়ান": 6227,
  "▁ইয়ার": 6228,
  "▁ইয়াহ": 6229,
  "▁ইয়ে": 6230,
  "▁ইয়েম": 6231,
  "▁ইর": 6232,
  "▁ইরাক": 6233,
  "▁ইরাকি": 6234,
  "▁ইরাকের": 6235,
  "▁ইরান": 6236,
  "▁ইরানি": 6237,
  "▁ইরানের": 6238,
  "▁ইল": 6239,
  "▁ইলেক": 6240,
  "▁ইলেকট্র": 6241,
  "▁ইলেকট্রন": 6242,
  "▁ইলেকট্রনিক": 6243,
  "▁ইলেক্ট্র": 6244,
  "▁ইস": 6245,
  "▁ইসম": 6246,
  "▁ইসমাইল": 6247,
  "▁ইসরায়ে": 6248,
  "▁ইসরায়েল": 6249,
  "▁ইসরায়েলি": 6250,
  "▁ইসরায়েলের": 6251,
  "▁ইসলাম": 6252,
  "▁ইসলামি": 6253,
  "▁ইসলামিক": 6254,
  "▁ইসলামিয়া": 6255,
  "▁ইসলামী": 6256,
  "▁ইসলামে": 6257,
  "▁ইসলামের": 6258,
  "▁ইস্": 6259,
  "▁ইস্ট": 6260,
  "▁ইস্টার্ন": 6261,
  "▁ইস্ত": 6262,
  "▁ইস্তাম্ব": 6263,
  "▁ইহ": 6264,
  "▁ইহুদ": 6265,
  "▁ইহুদি": 6266,
  "▁ঈ": 6267,
  "▁ঈশ্বর": 6268,
  "▁ঈশ্বরের": 6269,
  "▁উ": 6270,
  "▁উঁচ": 6271,
  "▁উঁচু": 6272,
  "▁উই": 6273,
  "▁উইক": 6274,
  "▁উইকিউ": 6275,
  "▁উইকিউপাত": 6276,
  "▁উইকিউপাত্তে": 6277,
  "▁উইকিপ": 6278,
  "▁উইকিপিড": 6279,
  "▁উইকিপিডিয়া": 6280,
  "▁উইকেট": 6281,
  "▁উইকেট-": 6282,
  "▁উইকেট-রক্ষক": 6283,
  "▁উইকেটে": 6284,
  "▁উইজ": 6285,
  "▁উইজডেন": 6286,
  "▁উইন": 6287,
  "▁উইন্ড": 6288,
  "▁উইন্ডোজ": 6289,
  "▁উইমেন": 6290,
  "▁উইল": 6291,
  "▁উইলিয়াম": 6292,
  "▁উক্ত": 6293,
  "▁উচ": 6294,
  "▁উচিত": 6295,
  "▁উচিত।": 6296,
  "▁উচ্চ": 6297,
  "▁উচ্চতর": 6298,
  "▁উচ্চতা": 6299,
  "▁উচ্চতায়": 6300,
  "▁উচ্চারণ": 6301,
  "▁উজ": 6302,
  "▁উজবেক": 6303,
  "▁উজ্জ": 6304,
  "▁উজ্জ্বল": 6305,
  "▁উঠ": 6306,
  "▁উঠতে": 6307,
  "▁উঠে": 6308,
  "▁উঠে।": 6309,
  "▁উঠেছে।": 6310,
  "▁উড": 6311,
  "▁উড়": 6312,
  "▁উড্ড": 6313,
  "▁উত": 6314,
  "▁উত্ত": 6315,
  "▁উত্তম": 6316,
  "▁উত্তর": 6317,
  "▁উত্তর-পশ্চিম": 6318,
  "▁উত্তর-পূর্ব": 6319,
  "▁উত্তরপ্রদেশ": 6320,
  "▁উত্তরপ্রদেশের": 6321,
  "▁উত্তরসূ": 6322,
  "▁উত্তরা": 6323,
  "▁উত্তরাধ": 6324,
  "▁উত্তরাধিকার": 6325,
  "▁উত্তরাধিকারী": 6326,
  "▁উত্তরে": 6327,
  "▁উত্তীর্ণ": 6328,
  "▁উত্তেজ": 6329,
  "▁উত্তোল": 6330,
  "▁উত্থ": 6331,
  "▁উত্থান": 6332,
  "▁উত্স": 6333,
  "▁উদ": 6334,
  "▁উদয": 6335,
  "▁উদয়": 6336,
  "▁উদার": 6337,
  "▁উদাহরণ": 6338,
  "▁উদাহরণস্বরূপ": 6339,
  "▁উদাহরণস্বরূপ,": 6340,
  "▁উদ্": 6341,
  "▁উদ্দ": 6342,
  "▁উদ্দিন": 6343,
  "▁উদ্দীপ": 6344,
  "▁উদ্দেশ": 6345,
  "▁উদ্দেশ্য": 6346,
  "▁উদ্দেশ্যে": 6347,
  "▁উদ্ধ": 6348,
  "▁উদ্ধার": 6349,
  "▁উদ্ধৃতি": 6350,
  "▁উদ্ব": 6351,
  "▁উদ্বেগ": 6352,
  "▁উদ্বোধ": 6353,
  "▁উদ্বোধন": 6354,
  "▁উদ্বোধনী": 6355,
  "▁উদ্ভ": 6356,
  "▁উদ্ভব": 6357,
  "▁উদ্ভাব": 6358,
  "▁উদ্ভাবন": 6359,
  "▁উদ্ভিদ": 6360,
  "▁উদ্ভিদের": 6361,
  "▁উদ্ভূত": 6362,
  "▁উদ্যান": 6363,
  "▁উদ্যোক্ত": 6364,
  "▁উদ্যোগ": 6365,
  "▁উদ্যোগে": 6366,
  "▁উদ্‌": 6367,
  "▁উদ্‌যাপন": 6368,
  "▁উন": 6369,
  "▁উনিশ": 6370,
  "▁উন্": 6371,
  "▁উন্ন": 6372,
  "▁উন্নত": 6373,
  "▁উন্নতি": 6374,
  "▁উন্নয়ন": 6375,
  "▁উন্নয়নে": 6376,
  "▁উন্নয়নের": 6377,
  "▁উন্নীত": 6378,
  "▁উন্ম": 6379,
  "▁উন্মুক্ত": 6380,
  "▁উপ": 6381,
  "▁উপক": 6382,
  "▁উপকরণ": 6383,
  "▁উপকূ": 6384,
  "▁উপকূল": 6385,
  "▁উপকূলীয়": 6386,
  "▁উপকূলে": 6387,
  "▁উপগ্রহ": 6388,
  "▁উপজাত": 6389,
  "▁উপজাতি": 6390,
  "▁উপজাতিদের": 6391,
  "▁উপজেল": 6392,
  "▁উপজেলা": 6393,
  "▁উপজেলা,": 6394,
  "▁উপজেলায়": 6395,
  "▁উপজেলার": 6396,
  "▁উপত্য": 6397,
  "▁উপত্যকা": 6398,
  "▁উপত্যকায়": 6399,
  "▁উপদে": 6400,
  "▁উপদেষ্টা": 6401,
  "▁উপদ্বীপ": 6402,
  "▁উপন": 6403,
  "▁উপনি": 6404,
  "▁উপনিবেশ": 6405,
  "▁উপনিষদ": 6406,
  "▁উপন্যাস": 6407,
  "▁উপন্যাসের": 6408,
  "▁উপপ্রজাত": 6409,
  "▁উপভোগ": 6410,
  "▁উপমহাদেশ": 6411,
  "▁উপমহাদেশের": 6412,
  "▁উপযুক্ত": 6413,
  "▁উপযোগী": 6414,
  "▁উপর": 6415,
  "▁উপরে": 6416,
  "▁উপরের": 6417,
  "▁উপল": 6418,
  "▁উপলক্ষে": 6419,
  "▁উপলব্ধ": 6420,
  "▁উপলব্ধি": 6421,
  "▁উপস": 6422,
  "▁উপসর্গ": 6423,
  "▁উপসাগর": 6424,
  "▁উপস্থ": 6425,
  "▁উপস্থাপন": 6426,
  "▁উপস্থাপনা": 6427,
  "▁উপস্থিত": 6428,
  "▁উপস্থিতি": 6429,
  "▁উপহার": 6430,
  "▁উপাচার্য": 6431,
  "▁উপাত্ত": 6432,
  "▁উপাদ": 6433,
  "▁উপাদান": 6434,
  "▁উপাদানের": 6435,
  "▁উপাধ": 6436,
  "▁উপাধি": 6437,
  "▁উপায়": 6438,
  "▁উপায়ে": 6439,
  "▁উপাস": 6440,
  "▁উপাসনা": 6441,
  "▁উভ": 6442,
  "▁উভয়": 6443,
  "▁উভয়ই": 6444,
  "▁উভয়ের": 6445,
  "▁উম": 6446,
  "▁উমর": 6447,
  "▁উম্ম": 6448,
  "▁উয়ে": 6449,
  "▁উয়েফা": 6450,
  "▁উর": 6451,
  "▁উর্দ": 6452,
  "▁উর্দু": 6453,
  "▁উল": 6454,
  "▁উলুম": 6455,
  "▁উল্ল": 6456,
  "▁উল্লিখিত": 6457,
  "▁উল্লেখ": 6458,
  "▁উল্লেখযোগ্য": 6459,
  "▁উল্লেখযোগ্য।": 6460,
  "▁উল্লেখযোগ্যভাবে": 6461,
  "▁উষ্ণ": 6462,
  "▁উসমান": 6463,
  "▁উসমানীয়": 6464,
  "▁উৎ": 6465,
  "▁উৎক্ষেপ": 6466,
  "▁উৎক্ষেপণ": 6467,
  "▁উৎপ": 6468,
  "▁উৎপত্তি": 6469,
  "▁উৎপন্ন": 6470,
  "▁উৎপাদ": 6471,
  "▁উৎপাদন": 6472,
  "▁উৎপাদনের": 6473,
  "▁উৎপাদিত": 6474,
  "▁উৎস": 6475,
  "▁উৎসব": 6476,
  "▁উৎসবে": 6477,
  "▁উৎসবের": 6478,
  "▁উৎসর্গ": 6479,
  "▁উৎসাহ": 6480,
  "▁উৎসাহিত": 6481,
  "▁ঊ": 6482,
  "▁ঊন": 6483,
  "▁ঊনবিংশ": 6484,
  "▁ঊর্ধ্ব": 6485,
  "▁ঋ": 6486,
  "▁ঋণ": 6487,
  "▁ঋষ": 6488,
  "▁ঋষি": 6489,
  "▁এ": 6490,
  "▁এ.": 6491,
  "▁এঁ": 6492,
  "▁এই": 6493,
  "▁এইচ": 6494,
  "▁এইচ.": 6495,
  "▁এইভাবে": 6496,
  "▁এইসব": 6497,
  "▁এএফসি": 6498,
  "▁এক": 6499,
  "▁একই": 6500,
  "▁একইভাবে": 6501,
  "▁একক": 6502,
  "▁একজন": 6503,
  "▁একটা": 6504,
  "▁একটি": 6505,
  "▁একটি।": 6506,
  "▁একটু": 6507,
  "▁একত্র": 6508,
  "▁একত্রিত": 6509,
  "▁একত্রে": 6510,
  "▁একদল": 6511,
  "▁একদিন": 6512,
  "▁একদিনের": 6513,
  "▁একবার": 6514,
  "▁একমাত্র": 6515,
  "▁একর": 6516,
  "▁একসময়": 6517,
  "▁একসাথে": 6518,
  "▁একাডেম": 6519,
  "▁একাডেমি": 6520,
  "▁একাডেমিক": 6521,
  "▁একাডেমির": 6522,
  "▁একাডেমী": 6523,
  "▁একাদশ": 6524,
  "▁একাদশের": 6525,
  "▁একাধিক": 6526,
  "▁একীভূত": 6527,
  "▁একুশ": 6528,
  "▁একুশে": 6529,
  "▁একে": 6530,
  "▁একেবারে": 6531,
  "▁এক্ষ": 6532,
  "▁এক্ষেত্রে": 6533,
  "▁এক্স": 6534,
  "▁এক্সচেঞ্জ": 6535,
  "▁এক্সপ্রেস": 6536,
  "▁এখন": 6537,
  "▁এখনও": 6538,
  "▁এখনো": 6539,
  "▁এখান": 6540,
  "▁এখানকার": 6541,
  "▁এখানে": 6542,
  "▁এগ": 6543,
  "▁এগার": 6544,
  "▁এগিয়ে": 6545,
  "▁এগুলি": 6546,
  "▁এগুলো": 6547,
  "▁এছাড়া": 6548,
  "▁এছাড়াও": 6549,
  "▁এছাড়াও,": 6550,
  "▁এজ": 6551,
  "▁এজন্য": 6552,
  "▁এজেন্ট": 6553,
  "▁এট": 6554,
  "▁এটা": 6555,
  "▁এটি": 6556,
  "▁এটিই": 6557,
  "▁এটিকে": 6558,
  "▁এটিতে": 6559,
  "▁এটির": 6560,
  "▁এড": 6561,
  "▁এডওয়ার্ড": 6562,
  "▁এড়": 6563,
  "▁এডুকে": 6564,
  "▁এত": 6565,
  "▁এতে": 6566,
  "▁এথ": 6567,
  "▁এদের": 6568,
  "▁এন": 6569,
  "▁এনজ": 6570,
  "▁এনে": 6571,
  "▁এন্টার": 6572,
  "▁এন্টারটেইনমেন্ট": 6573,
  "▁এন্ড": 6574,
  "▁এপ": 6575,
  "▁এপর্যন্ত": 6576,
  "▁এপ্রিল": 6577,
  "▁এপ্রিল,": 6578,
  "▁এপ্রিল-জুন": 6579,
  "▁এপ্রিলে": 6580,
  "▁এফ": 6581,
  "▁এব": 6582,
  "▁এবং": 6583,
  "▁এভ": 6584,
  "▁এভাবে": 6585,
  "▁এম": 6586,
  "▁এম.": 6587,
  "▁এমন": 6588,
  "▁এমনকি": 6589,
  "▁এমপি": 6590,
  "▁এমি": 6591,
  "▁এয়ার": 6592,
  "▁এয়ারলাই": 6593,
  "▁এর": 6594,
  "▁এরও": 6595,
  "▁এরকম": 6596,
  "▁এরপর": 6597,
  "▁এরপরে": 6598,
  "▁এরফ": 6599,
  "▁এরফলে": 6600,
  "▁এরা": 6601,
  "▁এরিক": 6602,
  "▁এল": 6603,
  "▁এলজি": 6604,
  "▁এলজিবিটি": 6605,
  "▁এলাক": 6606,
  "▁এলাকা": 6607,
  "▁এলাকা।": 6608,
  "▁এলাকাটি": 6609,
  "▁এলাকায়": 6610,
  "▁এলাকার": 6611,
  "▁এলিজ": 6612,
  "▁এলিজাবে": 6613,
  "▁এশ": 6614,
  "▁এশিয়া": 6615,
  "▁এশিয়ান": 6616,
  "▁এশিয়ায়": 6617,
  "▁এশিয়ার": 6618,
  "▁এশীয়": 6619,
  "▁এস": 6620,
  "▁এস.": 6621,
  "▁এসব": 6622,
  "▁এসময়": 6623,
  "▁এসি": 6624,
  "▁এসে": 6625,
  "▁এসেছে": 6626,
  "▁এসেছে।": 6627,
  "▁এস্ট": 6628,
  "▁ঐ": 6629,
  "▁ঐক্য": 6630,
  "▁ঐতিহ": 6631,
  "▁ঐতিহাস": 6632,
  "▁ঐতিহাসিক": 6633,
  "▁ঐতিহাসিকভাবে": 6634,
  "▁ঐতিহ্য": 6635,
  "▁ঐতিহ্যগত": 6636,
  "▁ঐতিহ্যবাহী": 6637,
  "▁ঐতিহ্যের": 6638,
  "▁ঐশ্বর": 6639,
  "▁ও": 6640,
  "▁ওই": 6641,
  "▁ওজন": 6642,
  "▁ওঠ": 6643,
  "▁ওঠে": 6644,
  "▁ওঠে।": 6645,
  "▁ওঠেন।": 6646,
  "▁ওড": 6647,
  "▁ওড়": 6648,
  "▁ওড়িশ": 6649,
  "▁ওড়িশা": 6650,
  "▁ওড়িশার": 6651,
  "▁ওডিআই": 6652,
  "▁ওডিআইয়ে": 6653,
  "▁ওপ": 6654,
  "▁ওপর": 6655,
  "▁ওপেন": 6656,
  "▁ওব": 6657,
  "▁ওভ": 6658,
  "▁ওভার": 6659,
  "▁ওম": 6660,
  "▁ওমর": 6661,
  "▁ওমান": 6662,
  "▁ওয়": 6663,
  "▁ওয়াই": 6664,
  "▁ওয়াক": 6665,
  "▁ওয়াট": 6666,
  "▁ওয়াটার": 6667,
  "▁ওয়ান": 6668,
  "▁ওয়ার": 6669,
  "▁ওয়ার্ক": 6670,
  "▁ওয়ার্ড": 6671,
  "▁ওয়ার্ল্ড": 6672,
  "▁ওয়াল": 6673,
  "▁ওয়াশ": 6674,
  "▁ওয়াশিংটন": 6675,
  "▁ওয়াহ": 6676,
  "▁ওয়ে": 6677,
  "▁ওয়েব": 6678,
  "▁ওয়েবসাইট": 6679,
  "▁ওয়েল": 6680,
  "▁ওয়েলস": 6681,
  "▁ওয়েলসের": 6682,
  "▁ওয়েস্ট": 6683,
  "▁ওয়েস্টার্ন": 6684,
  "▁ওর": 6685,
  "▁ওল": 6686,
  "▁ওলন্দাজ": 6687,
  "▁ওল্ড": 6688,
  "▁ওষুধ": 6689,
  "▁ওস": 6690,
  "▁ওসমান": 6691,
  "▁ঔ": 6692,
  "▁ঔপন": 6693,
  "▁ঔপনিবেশিক": 6694,
  "▁ঔপন্যাস": 6695,
  "▁ঔপন্যাসিক": 6696,
  "▁ঔষ": 6697,
  "▁ঔষধ": 6698,
  "▁ক": 6699,
  "▁কং": 6700,
  "▁কংগ্রেস": 6701,
  "▁কংগ্রেসের": 6702,
  "▁কক্ষ": 6703,
  "▁কক্ষপথ": 6704,
  "▁কক্স": 6705,
  "▁কখন": 6706,
  "▁কখনও": 6707,
  "▁কখনো": 6708,
  "▁কঙ্গ": 6709,
  "▁কঠ": 6710,
  "▁কঠিন": 6711,
  "▁কঠোর": 6712,
  "▁কণ": 6713,
  "▁কণা": 6714,
  "▁কণ্ঠ": 6715,
  "▁কণ্ঠশিল্পী": 6716,
  "▁কত": 6717,
  "▁কথ": 6718,
  "▁কথা": 6719,
  "▁কথিত": 6720,
  "▁কন": 6721,
  "▁কনক": 6722,
  "▁কনফ": 6723,
  "▁কনফেড": 6724,
  "▁কনস্ট": 6725,
  "▁কন্ন": 6726,
  "▁কন্নড়": 6727,
  "▁কন্যা": 6728,
  "▁কপ": 6729,
  "▁কপির": 6730,
  "▁কব": 6731,
  "▁কবর": 6732,
  "▁কবি": 6733,
  "▁কবিত": 6734,
  "▁কবিতা": 6735,
  "▁কবিতার": 6736,
  "▁কবির": 6737,
  "▁কম": 6738,
  "▁কম।": 6739,
  "▁কমন": 6740,
  "▁কমনওয়েল": 6741,
  "▁কমনওয়েলথ": 6742,
  "▁কমপ": 6743,
  "▁কমপক্ষে": 6744,
  "▁কমপ্লেক্স": 6745,
  "▁কমল": 6746,
  "▁কমলা": 6747,
  "▁কমান্ড": 6748,
  "▁কমান্ডার": 6749,
  "▁কমিউ": 6750,
  "▁কমিউন": 6751,
  "▁কমিউনিটি": 6752,
  "▁কমিউনিস্ট": 6753,
  "▁কমিক": 6754,
  "▁কমিটি": 6755,
  "▁কমিটির": 6756,
  "▁কমিয়ে": 6757,
  "▁কমিশ": 6758,
  "▁কমিশন": 6759,
  "▁কমিশনার": 6760,
  "▁কমিশনের": 6761,
  "▁কমে": 6762,
  "▁কমেডি": 6763,
  "▁কম্প": 6764,
  "▁কম্পিউ": 6765,
  "▁কম্পিউট": 6766,
  "▁কম্পিউটার": 6767,
  "▁কম্ব": 6768,
  "▁কম্বোড": 6769,
  "▁কয়": 6770,
  "▁কয়লা": 6771,
  "▁কয়েক": 6772,
  "▁কয়েকজন": 6773,
  "▁কয়েকটি": 6774,
  "▁কর": 6775,
  "▁করছে": 6776,
  "▁করছে।": 6777,
  "▁করছেন": 6778,
  "▁করছেন।": 6779,
  "▁করত": 6780,
  "▁করত।": 6781,
  "▁করতে": 6782,
  "▁করতেন": 6783,
  "▁করতেন,": 6784,
  "▁করতেন।": 6785,
  "▁করতো।": 6786,
  "▁করবে": 6787,
  "▁করবে।": 6788,
  "▁করবেন": 6789,
  "▁করবেন।": 6790,
  "▁করল": 6791,
  "▁করলে": 6792,
  "▁করলেও": 6793,
  "▁করলেন।": 6794,
  "▁করা": 6795,
  "▁করা,": 6796,
  "▁করা।": 6797,
  "▁করাচ": 6798,
  "▁করাচি": 6799,
  "▁করায়": 6800,
  "▁করার": 6801,
  "▁করি": 6802,
  "▁করিম": 6803,
  "▁করিয়ে": 6804,
  "▁করে": 6805,
  "▁করে,": 6806,
  "▁করে:": 6807,
  "▁করে;": 6808,
  "▁করে।": 6809,
  "▁করেই": 6810,
  "▁করেছিল": 6811,
  "▁করেছিল,": 6812,
  "▁করেছিল।": 6813,
  "▁করেছিলেন": 6814,
  "▁করেছিলেন,": 6815,
  "▁করেছিলেন।": 6816,
  "▁করেছে": 6817,
  "▁করেছে,": 6818,
  "▁করেছে।": 6819,
  "▁করেছেন": 6820,
  "▁করেছেন,": 6821,
  "▁করেছেন;": 6822,
  "▁করেছেন।": 6823,
  "▁করেন": 6824,
  "▁করেন,": 6825,
  "▁করেন;": 6826,
  "▁করেন।": 6827,
  "▁করেননি।": 6828,
  "▁করোনা": 6829,
  "▁কর্ণ": 6830,
  "▁কর্ণাট": 6831,
  "▁কর্ণাটক": 6832,
  "▁কর্ণাটকের": 6833,
  "▁কর্ত": 6834,
  "▁কর্তৃ": 6835,
  "▁কর্তৃক": 6836,
  "▁কর্তৃত্ব": 6837,
  "▁কর্তৃপক্ষ": 6838,
  "▁কর্তৃপক্ষের": 6839,
  "▁কর্ন": 6840,
  "▁কর্নেল": 6841,
  "▁কর্প": 6842,
  "▁কর্পোর": 6843,
  "▁কর্পোরেশন": 6844,
  "▁কর্পোরেশনের": 6845,
  "▁কর্ম": 6846,
  "▁কর্মক": 6847,
  "▁কর্মকর্ত": 6848,
  "▁কর্মকর্তা": 6849,
  "▁কর্মকাণ্ড": 6850,
  "▁কর্মচারী": 6851,
  "▁কর্মজীব": 6852,
  "▁কর্মজীবন": 6853,
  "▁কর্মরত": 6854,
  "▁কর্মসূচ": 6855,
  "▁কর্মসূচি": 6856,
  "▁কর্মী": 6857,
  "▁কর্মীদের": 6858,
  "▁কল": 6859,
  "▁কলক": 6860,
  "▁কলকাতা": 6861,
  "▁কলকাতায়": 6862,
  "▁কলকাতার": 6863,
  "▁কলম্ব": 6864,
  "▁কলা": 6865,
  "▁কলাম": 6866,
  "▁কলাম্ব": 6867,
  "▁কলেজ": 6868,
  "▁কলেজ,": 6869,
  "▁কলেজ।": 6870,
  "▁কলেজটি": 6871,
  "▁কলেজে": 6872,
  "▁কলেজের": 6873,
  "▁কল্প": 6874,
  "▁কল্পকাহিনী": 6875,
  "▁কল্পনা": 6876,
  "▁কল্যাণ": 6877,
  "▁কষ্ট": 6878,
  "▁কস": 6879,
  "▁কা": 6880,
  "▁কাঁ": 6881,
  "▁কাঁচ": 6882,
  "▁কাঁচা": 6883,
  "▁কাই": 6884,
  "▁কাউ": 6885,
  "▁কাউন্টি": 6886,
  "▁কাউন্টির": 6887,
  "▁কাউন্স": 6888,
  "▁কাউন্সিল": 6889,
  "▁কাউন্সিলের": 6890,
  "▁কাক": 6891,
  "▁কাগ": 6892,
  "▁কাগজ": 6893,
  "▁কাচ": 6894,
  "▁কাছ": 6895,
  "▁কাছাকা": 6896,
  "▁কাছাকাছি": 6897,
  "▁কাছে": 6898,
  "▁কাজ": 6899,
  "▁কাজটি": 6900,
  "▁কাজাখ": 6901,
  "▁কাজী": 6902,
  "▁কাজে": 6903,
  "▁কাজের": 6904,
  "▁কাট": 6905,
  "▁কাটা": 6906,
  "▁কাটিয়ে": 6907,
  "▁কাঠ": 6908,
  "▁কাঠাম": 6909,
  "▁কাঠামো": 6910,
  "▁কাঠামোর": 6911,
  "▁কাঠের": 6912,
  "▁কাত": 6913,
  "▁কাতার": 6914,
  "▁কাতাল": 6915,
  "▁কাতালান": 6916,
  "▁কাদ": 6917,
  "▁কাদের": 6918,
  "▁কান": 6919,
  "▁কানাড": 6920,
  "▁কানাডা": 6921,
  "▁কানাডার": 6922,
  "▁কানাডীয়": 6923,
  "▁কাপ": 6924,
  "▁কাপড়": 6925,
  "▁কাপুর": 6926,
  "▁কাপে": 6927,
  "▁কাপের": 6928,
  "▁কাব": 6929,
  "▁কাব্য": 6930,
  "▁কাম": 6931,
  "▁কামাল": 6932,
  "▁কামিল": 6933,
  "▁কায়": 6934,
  "▁কার": 6935,
  "▁কারখান": 6936,
  "▁কারখানা": 6937,
  "▁কারণ": 6938,
  "▁কারণে": 6939,
  "▁কারণে,": 6940,
  "▁কারণেই": 6941,
  "▁কারাগারে": 6942,
  "▁কারাদ": 6943,
  "▁কারাদণ্ড": 6944,
  "▁কারিগ": 6945,
  "▁কারিগরি": 6946,
  "▁কার্": 6947,
  "▁কার্ট": 6948,
  "▁কার্টুন": 6949,
  "▁কার্ড": 6950,
  "▁কার্ত": 6951,
  "▁কার্ব": 6952,
  "▁কার্বন": 6953,
  "▁কার্য": 6954,
  "▁কার্যকর": 6955,
  "▁কার্যকরী": 6956,
  "▁কার্যকল": 6957,
  "▁কার্যকার": 6958,
  "▁কার্যক্রম": 6959,
  "▁কার্যালয়": 6960,
  "▁কার্ল": 6961,
  "▁কাল": 6962,
  "▁কালী": 6963,
  "▁কালে": 6964,
  "▁কালো": 6965,
  "▁কাল্পনিক": 6966,
  "▁কাশ": 6967,
  "▁কাশ্ম": 6968,
  "▁কাশ্মীর": 6969,
  "▁কাশ্মীরের": 6970,
  "▁কাস": 6971,
  "▁কাহ": 6972,
  "▁কাহিনি": 6973,
  "▁কাহিনী": 6974,
  "▁কি": 6975,
  "▁কি.মি": 6976,
  "▁কি.মি.": 6977,
  "▁কিং": 6978,
  "▁কিংবদন্ত": 6979,
  "▁কিংবদন্তি": 6980,
  "▁কিংবা": 6981,
  "▁কিংস": 6982,
  "▁কিউ": 6983,
  "▁কিছ": 6984,
  "▁কিছু": 6985,
  "▁কিছুই": 6986,
  "▁কিছুটা": 6987,
  "▁কিছুদ": 6988,
  "▁কিছুদিন": 6989,
  "▁কিট": 6990,
  "▁কিত": 6991,
  "▁কিন": 6992,
  "▁কিনা": 6993,
  "▁কিনে": 6994,
  "▁কিন্তু": 6995,
  "▁কিন্তু,": 6996,
  "▁কিম": 6997,
  "▁কিমি": 6998,
  "▁কিয়ে": 6999,
  "▁কির": 7000,
  "▁কিল": 7001,
  "▁কিলোমিটার": 7002,
  "▁কিলোমিটার।": 7003,
  "▁কিশোর": 7004,
  "▁কিশোরগঞ্জ": 7005,
  "▁কী": 7006,
  "▁কীভাবে": 7007,
  "▁কীর্ত": 7008,
  "▁কু": 7009,
  "▁কুই": 7010,
  "▁কুইন্": 7011,
  "▁কুক": 7012,
  "▁কুকুর": 7013,
  "▁কুড়ি": 7014,
  "▁কুত": 7015,
  "▁কুন": 7016,
  "▁কুব": 7017,
  "▁কুম": 7018,
  "▁কুমার": 7019,
  "▁কুমিল্ল": 7020,
  "▁কুমিল্লা": 7021,
  "▁কুয়": 7022,
  "▁কুয়ে": 7023,
  "▁কুর": 7024,
  "▁কুরআ": 7025,
  "▁কুরআন": 7026,
  "▁কুরআনের": 7027,
  "▁কুর্দ": 7028,
  "▁কুল": 7029,
  "▁কুশ": 7030,
  "▁কুষ্টি": 7031,
  "▁কুষ্টিয়া": 7032,
  "▁কুস্ত": 7033,
  "▁কূট": 7034,
  "▁কূটনৈতিক": 7035,
  "▁কৃ": 7036,
  "▁কৃত": 7037,
  "▁কৃতিত্ব": 7038,
  "▁কৃত্রিম": 7039,
  "▁কৃষ": 7040,
  "▁কৃষক": 7041,
  "▁কৃষি": 7042,
  "▁কৃষ্ণ": 7043,
  "▁কৃষ্ণের": 7044,
  "▁কে": 7045,
  "▁কে.": 7046,
  "▁কেউ": 7047,
  "▁কেজ": 7048,
  "▁কেজি": 7049,
  "▁কেটে": 7050,
  "▁কেন": 7051,
  "▁কেননা": 7052,
  "▁কেন্দ্র": 7053,
  "▁কেন্দ্র।": 7054,
  "▁কেন্দ্রগুলির": 7055,
  "▁কেন্দ্রটি": 7056,
  "▁কেন্দ্রটিতে": 7057,
  "▁কেন্দ্রীয়": 7058,
  "▁কেন্দ্রে": 7059,
  "▁কেন্দ্রের": 7060,
  "▁কেপ": 7061,
  "▁কেপলার": 7062,
  "▁কেবল": 7063,
  "▁কেবলমাত্র": 7064,
  "▁কেম": 7065,
  "▁কেমব্রিজ": 7066,
  "▁কের": 7067,
  "▁কেরালা": 7068,
  "▁কেল": 7069,
  "▁কেশ": 7070,
  "▁কৈ": 7071,
  "▁কো": 7072,
  "▁কোচ": 7073,
  "▁কোট": 7074,
  "▁কোটি": 7075,
  "▁কোড": 7076,
  "▁কোণ": 7077,
  "▁কোথা": 7078,
  "▁কোথাও": 7079,
  "▁কোন": 7080,
  "▁কোনও": 7081,
  "▁কোনো": 7082,
  "▁কোপ": 7083,
  "▁কোপা": 7084,
  "▁কোব": 7085,
  "▁কোভ": 7086,
  "▁কোভিড": 7087,
  "▁কোভিড-১৯": 7088,
  "▁কোম": 7089,
  "▁কোম্প": 7090,
  "▁কোম্পান": 7091,
  "▁কোম্পানি": 7092,
  "▁কোম্পানির": 7093,
  "▁কোম্পানী": 7094,
  "▁কোয়": 7095,
  "▁কোয়ান্ট": 7096,
  "▁কোয়ান্টাম": 7097,
  "▁কোয়ার": 7098,
  "▁কোয়ার্টার": 7099,
  "▁কোর": 7100,
  "▁কোরিয়া": 7101,
  "▁কোরিয়ার": 7102,
  "▁কোরীয়": 7103,
  "▁কোর্": 7104,
  "▁কোর্ট": 7105,
  "▁কোর্টের": 7106,
  "▁কোর্স": 7107,
  "▁কোল": 7108,
  "▁কোষ": 7109,
  "▁কোষের": 7110,
  "▁কোস্ট": 7111,
  "▁কৌ": 7112,
  "▁কৌতুক": 7113,
  "▁কৌশ": 7114,
  "▁কৌশল": 7115,
  "▁কৌশলগত": 7116,
  "▁ক্যা": 7117,
  "▁ক্যাট": 7118,
  "▁ক্যাড": 7119,
  "▁ক্যাথ": 7120,
  "▁ক্যাথলিক": 7121,
  "▁ক্যান": 7122,
  "▁ক্যান্স": 7123,
  "▁ক্যান্সার": 7124,
  "▁ক্যাপ": 7125,
  "▁ক্যাপ্টেন": 7126,
  "▁ক্যাম": 7127,
  "▁ক্যামের": 7128,
  "▁ক্যাম্প": 7129,
  "▁ক্যাম্পাস": 7130,
  "▁ক্যার": 7131,
  "▁ক্যারিব": 7132,
  "▁ক্যারিয়ার": 7133,
  "▁ক্যারোল": 7134,
  "▁ক্যাল": 7135,
  "▁ক্যালিফোর্ন": 7136,
  "▁ক্যালিফোর্নিয়া": 7137,
  "▁ক্যালিফোর্নিয়ার": 7138,
  "▁ক্যাস": 7139,
  "▁ক্র": 7140,
  "▁ক্রম": 7141,
  "▁ক্রমব": 7142,
  "▁ক্রমবর্ধমান": 7143,
  "▁ক্রমাগত": 7144,
  "▁ক্রয়": 7145,
  "▁ক্রস": 7146,
  "▁ক্রান্ত": 7147,
  "▁ক্রান্তীয়": 7148,
  "▁ক্রিকেট": 7149,
  "▁ক্রিকেটার": 7150,
  "▁ক্রিকেটার।": 7151,
  "▁ক্রিকেটারদের": 7152,
  "▁ক্রিকেটে": 7153,
  "▁ক্রিকেটের": 7154,
  "▁ক্রিয়া": 7155,
  "▁ক্রিয়াক": 7156,
  "▁ক্রিয়াকল": 7157,
  "▁ক্রিয়াকলাপ": 7158,
  "▁ক্রিস": 7159,
  "▁ক্রিস্ট": 7160,
  "▁ক্রী": 7161,
  "▁ক্রীড়": 7162,
  "▁ক্রীড়া": 7163,
  "▁ক্রীড়াবিদ": 7164,
  "▁ক্রুসে": 7165,
  "▁ক্রো": 7166,
  "▁ক্রোম": 7167,
  "▁ক্রোয়েশ": 7168,
  "▁ক্ল": 7169,
  "▁ক্লাব": 7170,
  "▁ক্লাবটি": 7171,
  "▁ক্লাবে": 7172,
  "▁ক্লাবের": 7173,
  "▁ক্লাস": 7174,
  "▁ক্লিন": 7175,
  "▁ক্লে": 7176,
  "▁ক্লোর": 7177,
  "▁ক্ষ": 7178,
  "▁ক্ষতি": 7179,
  "▁ক্ষতিক": 7180,
  "▁ক্ষতিগ্রস্ত": 7181,
  "▁ক্ষম": 7182,
  "▁ক্ষমতা": 7183,
  "▁ক্ষমতায়": 7184,
  "▁ক্ষমতার": 7185,
  "▁ক্ষমা": 7186,
  "▁ক্ষয়": 7187,
  "▁ক্ষুদ্র": 7188,
  "▁ক্ষেত্র": 7189,
  "▁ক্ষেত্রে": 7190,
  "▁ক্ষেত্রে,": 7191,
  "▁ক্ষেত্রেই": 7192,
  "▁ক্ষেত্রের": 7193,
  "▁ক্ষেপণ": 7194,
  "▁ক্ষেপণাস্ত্র": 7195,
  "▁খ": 7196,
  "▁খড়": 7197,
  "▁খণ্ড": 7198,
  "▁খন": 7199,
  "▁খনন": 7200,
  "▁খনিজ": 7201,
  "▁খন্ড": 7202,
  "▁খবর": 7203,
  "▁খর": 7204,
  "▁খরচ": 7205,
  "▁খল": 7206,
  "▁খলিফা": 7207,
  "▁খস": 7208,
  "▁খাঁ": 7209,
  "▁খাওয়া": 7210,
  "▁খাত": 7211,
  "▁খাদ": 7212,
  "▁খাদ্য": 7213,
  "▁খান": 7214,
  "▁খান,": 7215,
  "▁খানের": 7216,
  "▁খাব": 7217,
  "▁খাবার": 7218,
  "▁খাবারের": 7219,
  "▁খাম": 7220,
  "▁খার": 7221,
  "▁খারাপ": 7222,
  "▁খাল": 7223,
  "▁খালি": 7224,
  "▁খালিদ": 7225,
  "▁খালে": 7226,
  "▁খিল": 7227,
  "▁খিলাফ": 7228,
  "▁খুঁ": 7229,
  "▁খুঁজে": 7230,
  "▁খুন": 7231,
  "▁খুব": 7232,
  "▁খুবই": 7233,
  "▁খুল": 7234,
  "▁খুলনা": 7235,
  "▁খুলে": 7236,
  "▁খে": 7237,
  "▁খেতাব": 7238,
  "▁খেয়ে": 7239,
  "▁খেল": 7240,
  "▁খেলতে": 7241,
  "▁খেলতেন।": 7242,
  "▁খেলা": 7243,
  "▁খেলাধ": 7244,
  "▁খেলায়": 7245,
  "▁খেলার": 7246,
  "▁খেলে": 7247,
  "▁খেলেছিলেন।": 7248,
  "▁খেলেছেন।": 7249,
  "▁খেলেন।": 7250,
  "▁খেলোয়াড়": 7251,
  "▁খেলোয়াড়।": 7252,
  "▁খেলোয়াড়দের": 7253,
  "▁খেলোয়াড়ী": 7254,
  "▁খেলোয়াড়ের": 7255,
  "▁খোদ": 7256,
  "▁খোদাই": 7257,
  "▁খোল": 7258,
  "▁খোলা": 7259,
  "▁খ্য": 7260,
  "▁খ্যাত": 7261,
  "▁খ্যাতি": 7262,
  "▁খ্র": 7263,
  "▁খ্রি": 7264,
  "▁খ্রিষ্ট": 7265,
  "▁খ্রিষ্টপূর্ব": 7266,
  "▁খ্রিষ্টাব্দ": 7267,
  "▁খ্রিষ্টাব্দে": 7268,
  "▁খ্রিষ্টাব্দের": 7269,
  "▁খ্রিস্ট": 7270,
  "▁খ্রিস্টপূর্ব": 7271,
  "▁খ্রিস্টান": 7272,
  "▁খ্রিস্টাব্দ": 7273,
  "▁খ্রিস্টাব্দে": 7274,
  "▁খ্রিস্টাব্দের": 7275,
  "▁খ্রিস্টীয়": 7276,
  "▁খ্রী": 7277,
  "▁গ": 7278,
  "▁গঙ্গ": 7279,
  "▁গঙ্গা": 7280,
  "▁গজ": 7281,
  "▁গঠ": 7282,
  "▁গঠন": 7283,
  "▁গঠনের": 7284,
  "▁গঠিত": 7285,
  "▁গঠিত।": 7286,
  "▁গড": 7287,
  "▁গড়": 7288,
  "▁গড়ে": 7289,
  "▁গড়েন।": 7290,
  "▁গণ": 7291,
  "▁গণতান্ত্রিক": 7292,
  "▁গণনা": 7293,
  "▁গণমাধ্য": 7294,
  "▁গণমাধ্যম": 7295,
  "▁গণহত্যা": 7296,
  "▁গণিত": 7297,
  "▁গণিতবিদ": 7298,
  "▁গণেশ": 7299,
  "▁গণ্য": 7300,
  "▁গত": 7301,
  "▁গতি": 7302,
  "▁গতির": 7303,
  "▁গন্ধ": 7304,
  "▁গবে": 7305,
  "▁গবেষ": 7306,
  "▁গবেষক": 7307,
  "▁গবেষণ": 7308,
  "▁গবেষণা": 7309,
  "▁গবেষণায়": 7310,
  "▁গবেষণার": 7311,
  "▁গভ": 7312,
  "▁গভর্ন": 7313,
  "▁গভর্নর": 7314,
  "▁গভীর": 7315,
  "▁গমন": 7316,
  "▁গম্বুজ": 7317,
  "▁গর": 7318,
  "▁গরম": 7319,
  "▁গর্ভ": 7320,
  "▁গল": 7321,
  "▁গল্প": 7322,
  "▁গল্পের": 7323,
  "▁গহ": 7324,
  "▁গা": 7325,
  "▁গাঁ": 7326,
  "▁গাই": 7327,
  "▁গাইড": 7328,
  "▁গাওয়া": 7329,
  "▁গাঙ্গ": 7330,
  "▁গাছ": 7331,
  "▁গাছের": 7332,
  "▁গাজ": 7333,
  "▁গাজী": 7334,
  "▁গাজীপুর": 7335,
  "▁গাড়": 7336,
  "▁গাড়ি": 7337,
  "▁গাঢ়": 7338,
  "▁গাণিতিক": 7339,
  "▁গান": 7340,
  "▁গানটি": 7341,
  "▁গানে": 7342,
  "▁গানের": 7343,
  "▁গান্ধ": 7344,
  "▁গান্ধী": 7345,
  "▁গান্ধীর": 7346,
  "▁গায়": 7347,
  "▁গায়ক": 7348,
  "▁গায়িকা": 7349,
  "▁গায়ে": 7350,
  "▁গার": 7351,
  "▁গার্ড": 7352,
  "▁গাল": 7353,
  "▁গি": 7354,
  "▁গিটার": 7355,
  "▁গিয়ে": 7356,
  "▁গিয়েছিল": 7357,
  "▁গিয়েছিল।": 7358,
  "▁গিয়েছিলেন।": 7359,
  "▁গির": 7360,
  "▁গির্জ": 7361,
  "▁গিল": 7362,
  "▁গীত": 7363,
  "▁গীতিকার": 7364,
  "▁গু": 7365,
  "▁গুঁ": 7366,
  "▁গুগ": 7367,
  "▁গুগল": 7368,
  "▁গুজ": 7369,
  "▁গুজর": 7370,
  "▁গুজরাত": 7371,
  "▁গুজরাতের": 7372,
  "▁গুড": 7373,
  "▁গুণ": 7374,
  "▁গুন": 7375,
  "▁গুপ্ত": 7376,
  "▁গুয়": 7377,
  "▁গুয়াহ": 7378,
  "▁গুর": 7379,
  "▁গুরু": 7380,
  "▁গুরুতর": 7381,
  "▁গুরুত্ব": 7382,
  "▁গুরুত্বপূর্ণ": 7383,
  "▁গুরুত্বপূর্ণ।": 7384,
  "▁গুল": 7385,
  "▁গুলি": 7386,
  "▁গুলো": 7387,
  "▁গুহ": 7388,
  "▁গৃহ": 7389,
  "▁গৃহীত": 7390,
  "▁গে": 7391,
  "▁গেছে": 7392,
  "▁গেছে,": 7393,
  "▁গেছে।": 7394,
  "▁গেজ": 7395,
  "▁গেট": 7396,
  "▁গেম": 7397,
  "▁গেমস": 7398,
  "▁গেমসে": 7399,
  "▁গেমসের": 7400,
  "▁গেয়ে": 7401,
  "▁গের": 7402,
  "▁গেল": 7403,
  "▁গেলে": 7404,
  "▁গো": 7405,
  "▁গোড়ার": 7406,
  "▁গোত্র": 7407,
  "▁গোত্রের": 7408,
  "▁গোপ": 7409,
  "▁গোপন": 7410,
  "▁গোপাল": 7411,
  "▁গোব": 7412,
  "▁গোবিন্দ": 7413,
  "▁গোয়": 7414,
  "▁গোয়েন্দ": 7415,
  "▁গোয়েন্দা": 7416,
  "▁গোল": 7417,
  "▁গোলরক্ষক": 7418,
  "▁গোলাপ": 7419,
  "▁গোলাম": 7420,
  "▁গোলে": 7421,
  "▁গোলের": 7422,
  "▁গোল্ড": 7423,
  "▁গোল্ডেন": 7424,
  "▁গোষ্ঠী": 7425,
  "▁গোষ্ঠীর": 7426,
  "▁গোস": 7427,
  "▁গৌ": 7428,
  "▁গৌড়": 7429,
  "▁গৌতম": 7430,
  "▁গৌরব": 7431,
  "▁গ্যাল": 7432,
  "▁গ্যালারি": 7433,
  "▁গ্যাস": 7434,
  "▁গ্র": 7435,
  "▁গ্রন্থ": 7436,
  "▁গ্রন্থপঞ্জি": 7437,
  "▁গ্রন্থাগার": 7438,
  "▁গ্রন্থে": 7439,
  "▁গ্রন্থের": 7440,
  "▁গ্রহ": 7441,
  "▁গ্রহণ": 7442,
  "▁গ্রহণযোগ্য": 7443,
  "▁গ্রহণের": 7444,
  "▁গ্রহের": 7445,
  "▁গ্রাউন্ড": 7446,
  "▁গ্রাফ": 7447,
  "▁গ্রাম": 7448,
  "▁গ্রামীণ": 7449,
  "▁গ্রামে": 7450,
  "▁গ্রামের": 7451,
  "▁গ্রাহ": 7452,
  "▁গ্রিক": 7453,
  "▁গ্রিন": 7454,
  "▁গ্রী": 7455,
  "▁গ্রীক": 7456,
  "▁গ্রীষ্": 7457,
  "▁গ্রীষ্ম": 7458,
  "▁গ্রীষ্মকালীন": 7459,
  "▁গ্রুপ": 7460,
  "▁গ্রুপের": 7461,
  "▁গ্রে": 7462,
  "▁গ্রেগর": 7463,
  "▁গ্রেগরীয়": 7464,
  "▁গ্রেট": 7465,
  "▁গ্রেড": 7466,
  "▁গ্রেপ্ত": 7467,
  "▁গ্রেপ্তার": 7468,
  "▁গ্রেফ": 7469,
  "▁গ্রেফতার": 7470,
  "▁গ্র্যান্ড": 7471,
  "▁গ্ল": 7472,
  "▁গ্লোব": 7473,
  "▁গ্লোবাল": 7474,
  "▁ঘ": 7475,
  "▁ঘট": 7476,
  "▁ঘটতে": 7477,
  "▁ঘটন": 7478,
  "▁ঘটনা": 7479,
  "▁ঘটনাবলী": 7480,
  "▁ঘটনায়": 7481,
  "▁ঘটনার": 7482,
  "▁ঘটিয়ে": 7483,
  "▁ঘটে": 7484,
  "▁ঘটে।": 7485,
  "▁ঘণ": 7486,
  "▁ঘণ্টা": 7487,
  "▁ঘন": 7488,
  "▁ঘনত্ব": 7489,
  "▁ঘনিষ্ঠ": 7490,
  "▁ঘর": 7491,
  "▁ঘরে": 7492,
  "▁ঘরের": 7493,
  "▁ঘরোয়া": 7494,
  "▁ঘাঁ": 7495,
  "▁ঘাঁটি": 7496,
  "▁ঘাট": 7497,
  "▁ঘিরে": 7498,
  "▁ঘুম": 7499,
  "▁ঘুর": 7500,
  "▁ঘুরে": 7501,
  "▁ঘূর্ণ": 7502,
  "▁ঘূর্ণিঝ": 7503,
  "▁ঘূর্ণিঝড়": 7504,
  "▁ঘো": 7505,
  "▁ঘোষ": 7506,
  "▁ঘোষণ": 7507,
  "▁ঘোষণা": 7508,
  "▁ঘোষিত": 7509,
  "▁চ": 7510,
  "▁চও": 7511,
  "▁চওড়া": 7512,
  "▁চক": 7513,
  "▁চক্র": 7514,
  "▁চক্রবর্তী": 7515,
  "▁চট্ট": 7516,
  "▁চট্টগ্রাম": 7517,
  "▁চট্টগ্রামের": 7518,
  "▁চট্টোপাধ্যায়": 7519,
  "▁চত": 7520,
  "▁চতু": 7521,
  "▁চতুর্থ": 7522,
  "▁চন্দ্র": 7523,
  "▁চব্ব": 7524,
  "▁চব্বিশ": 7525,
  "▁চম": 7526,
  "▁চমৎকার": 7527,
  "▁চর": 7528,
  "▁চরম": 7529,
  "▁চরিত্র": 7530,
  "▁চরিত্রে": 7531,
  "▁চরিত্রের": 7532,
  "▁চর্চ": 7533,
  "▁চর্চা": 7534,
  "▁চল": 7535,
  "▁চলচ্চিত্র": 7536,
  "▁চলচ্চিত্র,": 7537,
  "▁চলচ্চিত্র।": 7538,
  "▁চলচ্চিত্রটি": 7539,
  "▁চলচ্চিত্রটিতে": 7540,
  "▁চলচ্চিত্রটির": 7541,
  "▁চলচ্চিত্রে": 7542,
  "▁চলচ্চিত্রের": 7543,
  "▁চলতে": 7544,
  "▁চলমান": 7545,
  "▁চলাকালীন": 7546,
  "▁চলাচল": 7547,
  "▁চলে": 7548,
  "▁চলে।": 7549,
  "▁চা": 7550,
  "▁চাঁ": 7551,
  "▁চাঁদ": 7552,
  "▁চাঁদপুর": 7553,
  "▁চাই": 7554,
  "▁চাইতে": 7555,
  "▁চাক": 7556,
  "▁চাকরি": 7557,
  "▁চাচ": 7558,
  "▁চান": 7559,
  "▁চাপ": 7560,
  "▁চাপের": 7561,
  "▁চাম": 7562,
  "▁চায়": 7563,
  "▁চার": 7564,
  "▁চারটি": 7565,
  "▁চারপ": 7566,
  "▁চারপাশে": 7567,
  "▁চার্": 7568,
  "▁চার্চ": 7569,
  "▁চার্জ": 7570,
  "▁চার্লস": 7571,
  "▁চাল": 7572,
  "▁চালানো": 7573,
  "▁চালানোর": 7574,
  "▁চালায়।": 7575,
  "▁চালিত": 7576,
  "▁চালিয়ে": 7577,
  "▁চালু": 7578,
  "▁চাষ": 7579,
  "▁চাহিদ": 7580,
  "▁চাহিদা": 7581,
  "▁চি": 7582,
  "▁চিক": 7583,
  "▁চিকিৎ": 7584,
  "▁চিকিৎস": 7585,
  "▁চিকিৎসক": 7586,
  "▁চিকিৎসা": 7587,
  "▁চিকিৎসার": 7588,
  "▁চিঠ": 7589,
  "▁চিঠি": 7590,
  "▁চিত্ত": 7591,
  "▁চিত্র": 7592,
  "▁চিত্রকর্ম": 7593,
  "▁চিত্রগ্রহণ": 7594,
  "▁চিত্রনাট্য": 7595,
  "▁চিত্রনাট্যকার": 7596,
  "▁চিত্রশালা": 7597,
  "▁চিত্রশিল্পী": 7598,
  "▁চিত্রিত": 7599,
  "▁চিন": 7600,
  "▁চিনি": 7601,
  "▁চিন্ত": 7602,
  "▁চিন্তা": 7603,
  "▁চিপ": 7604,
  "▁চির": 7605,
  "▁চিল": 7606,
  "▁চিহ্ন": 7607,
  "▁চিহ্নিত": 7608,
  "▁চী": 7609,
  "▁চীন": 7610,
  "▁চীনা": 7611,
  "▁চীনে": 7612,
  "▁চীনের": 7613,
  "▁চুক্ত": 7614,
  "▁চুক্তি": 7615,
  "▁চুক্তিতে": 7616,
  "▁চুক্তিবদ্ধ": 7617,
  "▁চুক্তির": 7618,
  "▁চুন": 7619,
  "▁চুরি": 7620,
  "▁চুল": 7621,
  "▁চূ": 7622,
  "▁চূড়": 7623,
  "▁চূড়ান্ত": 7624,
  "▁চে": 7625,
  "▁চেক": 7626,
  "▁চেত": 7627,
  "▁চেন": 7628,
  "▁চেন্ন": 7629,
  "▁চেন্নাই": 7630,
  "▁চেয়ার": 7631,
  "▁চেয়ারম্যান": 7632,
  "▁চেয়ে": 7633,
  "▁চেল": 7634,
  "▁চেষ্টা": 7635,
  "▁চৈ": 7636,
  "▁চো": 7637,
  "▁চোখ": 7638,
  "▁চোখে": 7639,
  "▁চোখের": 7640,
  "▁চৌ": 7641,
  "▁চৌধুর": 7642,
  "▁চৌধুরী": 7643,
  "▁চৌম্ব": 7644,
  "▁চ্যাট": 7645,
  "▁চ্যান": 7646,
  "▁চ্যানেল": 7647,
  "▁চ্যাপ": 7648,
  "▁চ্যাপলিন": 7649,
  "▁চ্যাম্প": 7650,
  "▁চ্যাম্পিয়ন": 7651,
  "▁চ্যাম্পিয়নশিপ": 7652,
  "▁চ্যাম্পিয়নশিপে": 7653,
  "▁চ্যাম্পিয়নশিপের": 7654,
  "▁চ্যাম্পিয়নশীপ": 7655,
  "▁চ্যাম্পিয়নস": 7656,
  "▁চ্যাল": 7657,
  "▁চ্যালেঞ্জ": 7658,
  "▁ছ": 7659,
  "▁ছড়িয়ে": 7660,
  "▁ছত্ত": 7661,
  "▁ছত্র": 7662,
  "▁ছদ্ম": 7663,
  "▁ছন্দ": 7664,
  "▁ছবি": 7665,
  "▁ছবিটি": 7666,
  "▁ছবিটির": 7667,
  "▁ছবিতে": 7668,
  "▁ছবির": 7669,
  "▁ছয়": 7670,
  "▁ছয়টি": 7671,
  "▁ছাগ": 7672,
  "▁ছাড়": 7673,
  "▁ছাড়া": 7674,
  "▁ছাড়াই": 7675,
  "▁ছাড়াও": 7676,
  "▁ছাত্র": 7677,
  "▁ছাত্রদের": 7678,
  "▁ছাদ": 7679,
  "▁ছাপ": 7680,
  "▁ছায়": 7681,
  "▁ছায়া": 7682,
  "▁ছিল": 7683,
  "▁ছিল,": 7684,
  "▁ছিল।": 7685,
  "▁ছিলেন": 7686,
  "▁ছিলেন,": 7687,
  "▁ছিলেন।": 7688,
  "▁ছিলো": 7689,
  "▁ছিলো।": 7690,
  "▁ছে": 7691,
  "▁ছেড়ে": 7692,
  "▁ছেল": 7693,
  "▁ছেলে": 7694,
  "▁ছোট": 7695,
  "▁ছোটগল্প": 7696,
  "▁ছোটো": 7697,
  "▁ছোপ": 7698,
  "▁জ": 7699,
  "▁জংশ": 7700,
  "▁জংশন": 7701,
  "▁জগ": 7702,
  "▁জগতে": 7703,
  "▁জগতের": 7704,
  "▁জগন্নাথ": 7705,
  "▁জগৎ": 7706,
  "▁জঙ্গ": 7707,
  "▁জটিল": 7708,
  "▁জড়": 7709,
  "▁জড়িত": 7710,
  "▁জড়িত।": 7711,
  "▁জড়িয়ে": 7712,
  "▁জন": 7713,
  "▁জন,": 7714,
  "▁জন।": 7715,
  "▁জনক": 7716,
  "▁জনগণ": 7717,
  "▁জনগণনা": 7718,
  "▁জনগণের": 7719,
  "▁জনগো": 7720,
  "▁জনগোষ্ঠী": 7721,
  "▁জনগোষ্ঠীর": 7722,
  "▁জনতা": 7723,
  "▁জনপ্র": 7724,
  "▁জনপ্রতিনিধি": 7725,
  "▁জনপ্রিয়": 7726,
  "▁জনপ্রিয়।": 7727,
  "▁জনপ্রিয়তা": 7728,
  "▁জনবহুল": 7729,
  "▁জনস": 7730,
  "▁জনসং": 7731,
  "▁জনসংখ্যা": 7732,
  "▁জনসংখ্যার": 7733,
  "▁জনসাধারণ": 7734,
  "▁জনসাধারণের": 7735,
  "▁জনাব": 7736,
  "▁জনের": 7737,
  "▁জন্ম": 7738,
  "▁জন্ম:": 7739,
  "▁জন্মগ্রহণ": 7740,
  "▁জন্মগ্রহণকারী": 7741,
  "▁জন্মের": 7742,
  "▁জন্য": 7743,
  "▁জন্য,": 7744,
  "▁জন্য।": 7745,
  "▁জন্যও": 7746,
  "▁জন্যে": 7747,
  "▁জম": 7748,
  "▁জমা": 7749,
  "▁জমি": 7750,
  "▁জমিতে": 7751,
  "▁জমিদ": 7752,
  "▁জমিদার": 7753,
  "▁জমির": 7754,
  "▁জম্ম": 7755,
  "▁জম্মু": 7756,
  "▁জয়": 7757,
  "▁জয়লাভ": 7758,
  "▁জয়ী": 7759,
  "▁জয়ের": 7760,
  "▁জর": 7761,
  "▁জরিপ": 7762,
  "▁জরুরি": 7763,
  "▁জর্জ": 7764,
  "▁জর্ড": 7765,
  "▁জর্দ": 7766,
  "▁জল": 7767,
  "▁জলদস্য": 7768,
  "▁জলবায়": 7769,
  "▁জলবায়ু": 7770,
  "▁জলা": 7771,
  "▁জলে": 7772,
  "▁জলের": 7773,
  "▁জাগ": 7774,
  "▁জাত": 7775,
  "▁জাতি": 7776,
  "▁জাতিগত": 7777,
  "▁জাতিগো": 7778,
  "▁জাতির": 7779,
  "▁জাতিসংঘ": 7780,
  "▁জাতিসংঘের": 7781,
  "▁জাতীয়": 7782,
  "▁জাতীয়তাবাদী": 7783,
  "▁জাদ": 7784,
  "▁জাদু": 7785,
  "▁জাদুঘ": 7786,
  "▁জাদুঘর": 7787,
  "▁জান": 7788,
  "▁জানতে": 7789,
  "▁জানা": 7790,
  "▁জানান": 7791,
  "▁জানান।": 7792,
  "▁জানানো": 7793,
  "▁জানায়": 7794,
  "▁জানায়।": 7795,
  "▁জানিয়ে": 7796,
  "▁জানুয়ার": 7797,
  "▁জানুয়ারি": 7798,
  "▁জানুয়ারি,": 7799,
  "▁জানুয়ারি-মার্চ": 7800,
  "▁জানুয়ারিতে": 7801,
  "▁জানুয়ারী": 7802,
  "▁জাপ": 7803,
  "▁জাপান": 7804,
  "▁জাপানি": 7805,
  "▁জাপানে": 7806,
  "▁জাপানের": 7807,
  "▁জাফ": 7808,
  "▁জাফর": 7809,
  "▁জাভ": 7810,
  "▁জাম": 7811,
  "▁জামাল": 7812,
  "▁জামালপুর": 7813,
  "▁জামিয়া": 7814,
  "▁জামে": 7815,
  "▁জায়": 7816,
  "▁জায়গ": 7817,
  "▁জায়গা": 7818,
  "▁জায়গায়": 7819,
  "▁জার": 7820,
  "▁জারি": 7821,
  "▁জার্": 7822,
  "▁জার্নাল": 7823,
  "▁জার্মান": 7824,
  "▁জার্মানি": 7825,
  "▁জার্মানিতে": 7826,
  "▁জার্মানির": 7827,
  "▁জার্সি": 7828,
  "▁জাল": 7829,
  "▁জালাল": 7830,
  "▁জাহ": 7831,
  "▁জাহাঙ্গ": 7832,
  "▁জাহাঙ্গীর": 7833,
  "▁জাহাজ": 7834,
  "▁জাহাজের": 7835,
  "▁জাহান": 7836,
  "▁জি": 7837,
  "▁জি.": 7838,
  "▁জিও": 7839,
  "▁জিজ্ঞ": 7840,
  "▁জিত": 7841,
  "▁জিতে": 7842,
  "▁জিতেছিলেন।": 7843,
  "▁জিন": 7844,
  "▁জিনিস": 7845,
  "▁জিম": 7846,
  "▁জিম্বাব": 7847,
  "▁জিম্বাবুয়ে": 7848,
  "▁জিম্বাবুয়ের": 7849,
  "▁জিয়া": 7850,
  "▁জির": 7851,
  "▁জিহ": 7852,
  "▁জীব": 7853,
  "▁জীবন": 7854,
  "▁জীবনী": 7855,
  "▁জীবনে": 7856,
  "▁জীবনের": 7857,
  "▁জীববিজ্ঞান": 7858,
  "▁জীবাশ্ম": 7859,
  "▁জীবিত": 7860,
  "▁জু": 7861,
  "▁জুটি": 7862,
  "▁জুড়ে": 7863,
  "▁জুন": 7864,
  "▁জুন,": 7865,
  "▁জুনিয়র": 7866,
  "▁জুব": 7867,
  "▁জুম": 7868,
  "▁জুল": 7869,
  "▁জুলাই": 7870,
  "▁জুলাই,": 7871,
  "▁জুলাই-সেপ্টেম্বর": 7872,
  "▁জে": 7873,
  "▁জে.": 7874,
  "▁জেন": 7875,
  "▁জেনারেল": 7876,
  "▁জেম": 7877,
  "▁জেমস": 7878,
  "▁জের": 7879,
  "▁জেল": 7880,
  "▁জেলা": 7881,
  "▁জেলা,": 7882,
  "▁জেলা।": 7883,
  "▁জেলাটির": 7884,
  "▁জেলায়": 7885,
  "▁জেলার": 7886,
  "▁জেস": 7887,
  "▁জৈ": 7888,
  "▁জৈন": 7889,
  "▁জৈব": 7890,
  "▁জো": 7891,
  "▁জোট": 7892,
  "▁জোড়া": 7893,
  "▁জোন": 7894,
  "▁জোর": 7895,
  "▁জোরপূর্বক": 7896,
  "▁জোসেফ": 7897,
  "▁জোহ": 7898,
  "▁জ্ঞ": 7899,
  "▁জ্ঞান": 7900,
  "▁জ্ঞানের": 7901,
  "▁জ্ব": 7902,
  "▁জ্বাল": 7903,
  "▁জ্বালানি": 7904,
  "▁জ্যাক": 7905,
  "▁জ্যাম": 7906,
  "▁জ্যামিত": 7907,
  "▁জ্যেষ্ঠ": 7908,
  "▁জ্যো": 7909,
  "▁জ্যোতি": 7910,
  "▁জ্যোতির্": 7911,
  "▁ঝ": 7912,
  "▁ঝাঁ": 7913,
  "▁ঝাড়": 7914,
  "▁ঝাড়খণ্ড": 7915,
  "▁ঝিন": 7916,
  "▁ঝুঁ": 7917,
  "▁ঝুঁক": 7918,
  "▁ঝুঁকি": 7919,
  "▁ট": 7920,
  "▁টন": 7921,
  "▁টনি": 7922,
  "▁টপ": 7923,
  "▁টম": 7924,
  "▁টমাস": 7925,
  "▁টর": 7926,
  "▁টাই": 7927,
  "▁টাইট": 7928,
  "▁টাইপ": 7929,
  "▁টাইম": 7930,
  "▁টাইমস": 7931,
  "▁টাউ": 7932,
  "▁টাউন": 7933,
  "▁টাওয়ার": 7934,
  "▁টাকা": 7935,
  "▁টাকার": 7936,
  "▁টাঙ্গ": 7937,
  "▁টাঙ্গাইল": 7938,
  "▁টান": 7939,
  "▁টানা": 7940,
  "▁টার": 7941,
  "▁টার্ম": 7942,
  "▁টার্মিনাল": 7943,
  "▁টি": 7944,
  "▁টি।": 7945,
  "▁টিউ": 7946,
  "▁টিক": 7947,
  "▁টিকে": 7948,
  "▁টিভ": 7949,
  "▁টিভি": 7950,
  "▁টিম": 7951,
  "▁টিরও": 7952,
  "▁টি২০": 7953,
  "▁টি২০আই": 7954,
  "▁টীকা": 7955,
  "▁টু": 7956,
  "▁টুই": 7957,
  "▁টুক": 7958,
  "▁টুয়": 7959,
  "▁টুয়েন্টি": 7960,
  "▁টুয়েন্টি২০": 7961,
  "▁টুর্নাম": 7962,
  "▁টুর্নামেন্ট": 7963,
  "▁টুর্নামেন্টে": 7964,
  "▁টুর্নামেন্টের": 7965,
  "▁টেক": 7966,
  "▁টেকনোল": 7967,
  "▁টেকনোলজি": 7968,
  "▁টেক্স": 7969,
  "▁টেক্সট": 7970,
  "▁টেন": 7971,
  "▁টেনিস": 7972,
  "▁টেব": 7973,
  "▁টেবিল": 7974,
  "▁টেম": 7975,
  "▁টের": 7976,
  "▁টেল": 7977,
  "▁টেলি": 7978,
  "▁টেলিফ": 7979,
  "▁টেলিভ": 7980,
  "▁টেলিভিশন": 7981,
  "▁টেলিভিশনে": 7982,
  "▁টেলিভিশনের": 7983,
  "▁টেস্ট": 7984,
  "▁টেস্টে": 7985,
  "▁টেস্টের": 7986,
  "▁টোক": 7987,
  "▁টোকিও": 7988,
  "▁ট্যাক্স": 7989,
  "▁ট্র": 7990,
  "▁ট্রফ": 7991,
  "▁ট্রফি": 7992,
  "▁ট্রাই": 7993,
  "▁ট্রানজ": 7994,
  "▁ট্রান্স": 7995,
  "▁ট্রাম্প": 7996,
  "▁ট্রাস্ট": 7997,
  "▁ট্রে": 7998,
  "▁ট্রেড": 7999,
  "▁ট্রেন": 8000,
  "▁ট্রেনের": 8001,
  "▁ট্র্যাক": 8002,
  "▁ঠ": 8003,
  "▁ঠাকুর": 8004,
  "▁ঠাকুরের": 8005,
  "▁ঠিক": 8006,
  "▁ঠোঁ": 8007,
  "▁ড": 8008,
  "▁ড.": 8009,
  "▁ডঃ": 8010,
  "▁ডক": 8011,
  "▁ডক্টর": 8012,
  "▁ডক্টরেট": 8013,
  "▁ডন": 8014,
  "▁ডব্লিউ": 8015,
  "▁ডল": 8016,
  "▁ডলার": 8017,
  "▁ডলারের": 8018,
  "▁ডা": 8019,
  "▁ডাঃ": 8020,
  "▁ডাই": 8021,
  "▁ডাইন": 8022,
  "▁ডাউন": 8023,
  "▁ডাক": 8024,
  "▁ডাকনাম": 8025,
  "▁ডাকা": 8026,
  "▁ডাক্ত": 8027,
  "▁ডাক্তার": 8028,
  "▁ডাচ": 8029,
  "▁ডান": 8030,
  "▁ডানহ": 8031,
  "▁ডানহাতি": 8032,
  "▁ডানহাতে": 8033,
  "▁ডানার": 8034,
  "▁ডাব": 8035,
  "▁ডাবল": 8036,
  "▁ডাব্লিউ": 8037,
  "▁ডাব্লিউডাব্লিউ": 8038,
  "▁ডাব্লিউডাব্লিউই": 8039,
  "▁ডায়": 8040,
  "▁ডার": 8041,
  "▁ডাল": 8042,
  "▁ডি": 8043,
  "▁ডি.": 8044,
  "▁ডিউ": 8045,
  "▁ডিএনএ": 8046,
  "▁ডিক": 8047,
  "▁ডিগ্র": 8048,
  "▁ডিগ্রি": 8049,
  "▁ডিগ্রী": 8050,
  "▁ডিজ": 8051,
  "▁ডিজন": 8052,
  "▁ডিজনি": 8053,
  "▁ডিজাইন": 8054,
  "▁ডিজিটাল": 8055,
  "▁ডিন": 8056,
  "▁ডিপ": 8057,
  "▁ডিপ্ল": 8058,
  "▁ডিফ": 8059,
  "▁ডিভ": 8060,
  "▁ডিভাইস": 8061,
  "▁ডিম": 8062,
  "▁ডিম্ব": 8063,
  "▁ডির": 8064,
  "▁ডিস": 8065,
  "▁ডিসেম্বর": 8066,
  "▁ডিসেম্বর,": 8067,
  "▁ডিসেম্বরে": 8068,
  "▁ডিস্ট": 8069,
  "▁ডু": 8070,
  "▁ডুব": 8071,
  "▁ডে": 8072,
  "▁ডেই": 8073,
  "▁ডেক": 8074,
  "▁ডেট": 8075,
  "▁ডেটা": 8076,
  "▁ডেন": 8077,
  "▁ডেপ": 8078,
  "▁ডেপুটি": 8079,
  "▁ডেভ": 8080,
  "▁ডেভিড": 8081,
  "▁ডেভেল": 8082,
  "▁ডেভেলপমেন্ট": 8083,
  "▁ডেম": 8084,
  "▁ডেমোক্র": 8085,
  "▁ডেল": 8086,
  "▁ডেস": 8087,
  "▁ডোম": 8088,
  "▁ডোমে": 8089,
  "▁ডোমেইন": 8090,
  "▁ডোর": 8091,
  "▁ড্যান": 8092,
  "▁ড্র": 8093,
  "▁ড্রাইভ": 8094,
  "▁ড্রাম": 8095,
  "▁ঢ": 8096,
  "▁ঢাকা": 8097,
  "▁ঢাকায়": 8098,
  "▁ঢাকার": 8099,
  "▁ঢাল": 8100,
  "▁ত": 8101,
  "▁তখন": 8102,
  "▁তড়ি": 8103,
  "▁তড়িৎ": 8104,
  "▁তত": 8105,
  "▁তত্ত্ব": 8106,
  "▁তত্ত্বাব": 8107,
  "▁তত্ত্বাবধানে": 8108,
  "▁তত্ত্বের": 8109,
  "▁তথ": 8110,
  "▁তথা": 8111,
  "▁তথ্য": 8112,
  "▁তথ্যসূত্র": 8113,
  "▁তথ্যের": 8114,
  "▁তদন্ত": 8115,
  "▁তন্ত্র": 8116,
  "▁তন্ম": 8117,
  "▁তন্মধ্যে": 8118,
  "▁তন্মধ্যে,": 8119,
  "▁তপ": 8120,
  "▁তফ": 8121,
  "▁তফসিল": 8122,
  "▁তফসিলী": 8123,
  "▁তবু": 8124,
  "▁তবুও": 8125,
  "▁তবে": 8126,
  "▁তবে,": 8127,
  "▁তম": 8128,
  "▁তর": 8129,
  "▁তরঙ্গ": 8130,
  "▁তরল": 8131,
  "▁তরুণ": 8132,
  "▁তল": 8133,
  "▁তলা": 8134,
  "▁তহ": 8135,
  "▁তহবিল": 8136,
  "▁তা": 8137,
  "▁তাঁ": 8138,
  "▁তাঁকে": 8139,
  "▁তাঁদের": 8140,
  "▁তাঁর": 8141,
  "▁তাঁরা": 8142,
  "▁তাই": 8143,
  "▁তাও": 8144,
  "▁তাক": 8145,
  "▁তাকে": 8146,
  "▁তাছাড়া": 8147,
  "▁তাজ": 8148,
  "▁তাজিক": 8149,
  "▁তাড়": 8150,
  "▁তাতে": 8151,
  "▁তাত্ত্বিক": 8152,
  "▁তাদের": 8153,
  "▁তাদেরকে": 8154,
  "▁তান": 8155,
  "▁তাপ": 8156,
  "▁তাপমাত্র": 8157,
  "▁তাপমাত্রা": 8158,
  "▁তাফ": 8159,
  "▁তাম": 8160,
  "▁তামিল": 8161,
  "▁তামিলনাড়": 8162,
  "▁তামিলনাড়ু": 8163,
  "▁তামিলনাড়ুর": 8164,
  "▁তার": 8165,
  "▁তার।": 8166,
  "▁তারকা": 8167,
  "▁তারপর": 8168,
  "▁তারপরে": 8169,
  "▁তারা": 8170,
  "▁তারার": 8171,
  "▁তারিখ": 8172,
  "▁তারিখে": 8173,
  "▁তারিখে,": 8174,
  "▁তাল": 8175,
  "▁তালিকা": 8176,
  "▁তালিকা।": 8177,
  "▁তালিকাভুক্ত": 8178,
  "▁তালিকায়": 8179,
  "▁তালিকার": 8180,
  "▁তালুক": 8181,
  "▁তালেব": 8182,
  "▁তাস": 8183,
  "▁তাহ": 8184,
  "▁তাহলে": 8185,
  "▁তাৎ": 8186,
  "▁তাৎপর্য": 8187,
  "▁তিউ": 8188,
  "▁তিউনিস": 8189,
  "▁তিন": 8190,
  "▁তিনজন": 8191,
  "▁তিনটি": 8192,
  "▁তিনবার": 8193,
  "▁তিনি": 8194,
  "▁তিনি।": 8195,
  "▁তিনিই": 8196,
  "▁তিব": 8197,
  "▁তিব্ব": 8198,
  "▁তিব্বত": 8199,
  "▁তিব্বতী": 8200,
  "▁তিব্বতের": 8201,
  "▁তিম": 8202,
  "▁তির": 8203,
  "▁তী": 8204,
  "▁তীব্র": 8205,
  "▁তীর": 8206,
  "▁তীরে": 8207,
  "▁তীর্থ": 8208,
  "▁তু": 8209,
  "▁তুম": 8210,
  "▁তুমি": 8211,
  "▁তুর": 8212,
  "▁তুরস্": 8213,
  "▁তুরস্ক": 8214,
  "▁তুরস্কের": 8215,
  "▁তুর্ক": 8216,
  "▁তুর্কি": 8217,
  "▁তুল": 8218,
  "▁তুলতে": 8219,
  "▁তুলনা": 8220,
  "▁তুলনামূলক": 8221,
  "▁তুলনামূলকভাবে": 8222,
  "▁তুলনায়": 8223,
  "▁তুলে": 8224,
  "▁তুলেন।": 8225,
  "▁তুষ": 8226,
  "▁তুষার": 8227,
  "▁তৃণ": 8228,
  "▁তৃণমূল": 8229,
  "▁তৃতীয়": 8230,
  "▁তে": 8231,
  "▁তেজ": 8232,
  "▁তেমন": 8233,
  "▁তের": 8234,
  "▁তেল": 8235,
  "▁তেলুগু": 8236,
  "▁তেলে": 8237,
  "▁তৈ": 8238,
  "▁তৈর": 8239,
  "▁তৈরি": 8240,
  "▁তৈরিতে": 8241,
  "▁তৈরির": 8242,
  "▁তৈরী": 8243,
  "▁তো": 8244,
  "▁তোম": 8245,
  "▁তোমার": 8246,
  "▁তোল": 8247,
  "▁তোলা": 8248,
  "▁তোলার": 8249,
  "▁তোলে": 8250,
  "▁তোলে।": 8251,
  "▁তোলেন।": 8252,
  "▁ত্ব": 8253,
  "▁ত্যাগ": 8254,
  "▁ত্র": 8255,
  "▁ত্রিপুর": 8256,
  "▁ত্রিপুরা": 8257,
  "▁ত্রিভ": 8258,
  "▁ত্রিশ": 8259,
  "▁ত্রুটি": 8260,
  "▁তৎ": 8261,
  "▁তৎকালীন": 8262,
  "▁থ": 8263,
  "▁থম": 8264,
  "▁থমাস": 8265,
  "▁থাই": 8266,
  "▁থাইল": 8267,
  "▁থাইল্যান্ড": 8268,
  "▁থাইল্যান্ডের": 8269,
  "▁থাক": 8270,
  "▁থাকতে": 8271,
  "▁থাকবে": 8272,
  "▁থাকবে।": 8273,
  "▁থাকলে": 8274,
  "▁থাকলেও": 8275,
  "▁থাকা": 8276,
  "▁থাকাকালীন": 8277,
  "▁থাকায়": 8278,
  "▁থাকার": 8279,
  "▁থাকে": 8280,
  "▁থাকে,": 8281,
  "▁থাকে।": 8282,
  "▁থাকেন": 8283,
  "▁থাকেন।": 8284,
  "▁থান": 8285,
  "▁থানা": 8286,
  "▁থানার": 8287,
  "▁থাম": 8288,
  "▁থিও": 8289,
  "▁থিয়ে": 8290,
  "▁থিয়েট": 8291,
  "▁থিয়েটার": 8292,
  "▁থিয়েটারে": 8293,
  "▁থে": 8294,
  "▁থেকে": 8295,
  "▁থেকে,": 8296,
  "▁থেকে।": 8297,
  "▁থেকেই": 8298,
  "▁থেকেও": 8299,
  "▁থের": 8300,
  "▁থ্র": 8301,
  "▁থ্রিলার": 8302,
  "▁দ": 8303,
  "▁দক্ষ": 8304,
  "▁দক্ষতা": 8305,
  "▁দক্ষতার": 8306,
  "▁দক্ষিণ": 8307,
  "▁দক্ষিণ-পশ্চিম": 8308,
  "▁দক্ষিণ-পূর্ব": 8309,
  "▁দক্ষিণে": 8310,
  "▁দখ": 8311,
  "▁দখল": 8312,
  "▁দণ্ড": 8313,
  "▁দত্ত": 8314,
  "▁দপ্তর": 8315,
  "▁দফ": 8316,
  "▁দফতর": 8317,
  "▁দম": 8318,
  "▁দমন": 8319,
  "▁দম্প": 8320,
  "▁দম্পতির": 8321,
  "▁দর": 8322,
  "▁দরকার": 8323,
  "▁দরিদ্র": 8324,
  "▁দর্শ": 8325,
  "▁দর্শক": 8326,
  "▁দর্শকদের": 8327,
  "▁দর্শন": 8328,
  "▁দর্শনীয়": 8329,
  "▁দর্শনের": 8330,
  "▁দল": 8331,
  "▁দল,": 8332,
  "▁দল।": 8333,
  "▁দলকে": 8334,
  "▁দলটি": 8335,
  "▁দলীয়": 8336,
  "▁দলে": 8337,
  "▁দলের": 8338,
  "▁দশ": 8339,
  "▁দশক": 8340,
  "▁দশকে": 8341,
  "▁দশকের": 8342,
  "▁দশটি": 8343,
  "▁দশম": 8344,
  "▁দা": 8345,
  "▁দাঁ": 8346,
  "▁দাঁড়": 8347,
  "▁দাঁড়িয়ে": 8348,
  "▁দাখ": 8349,
  "▁দাখিল": 8350,
  "▁দাগ": 8351,
  "▁দাত": 8352,
  "▁দান": 8353,
  "▁দাব": 8354,
  "▁দাবি": 8355,
  "▁দাবী": 8356,
  "▁দাম": 8357,
  "▁দামে": 8358,
  "▁দায়": 8359,
  "▁দায়িত্ব": 8360,
  "▁দায়িত্বে": 8361,
  "▁দায়ী": 8362,
  "▁দার": 8363,
  "▁দারিদ্র": 8364,
  "▁দারিদ্র্য": 8365,
  "▁দারুল": 8366,
  "▁দার্": 8367,
  "▁দার্জ": 8368,
  "▁দার্শন": 8369,
  "▁দার্শনিক": 8370,
  "▁দাল": 8371,
  "▁দাশ": 8372,
  "▁দাস": 8373,
  "▁দি": 8374,
  "▁দিক": 8375,
  "▁দিকে": 8376,
  "▁দিকে,": 8377,
  "▁দিকের": 8378,
  "▁দিগ": 8379,
  "▁দিত": 8380,
  "▁দিতে": 8381,
  "▁দিন": 8382,
  "▁দিনাজপুর": 8383,
  "▁দিনে": 8384,
  "▁দিনের": 8385,
  "▁দিব": 8386,
  "▁দিবস": 8387,
  "▁দিয়ে": 8388,
  "▁দিয়ে।": 8389,
  "▁দিয়েছিল": 8390,
  "▁দিয়েছিল।": 8391,
  "▁দিয়েছিলেন": 8392,
  "▁দিয়েছিলেন।": 8393,
  "▁দিয়েছে।": 8394,
  "▁দিয়েছেন": 8395,
  "▁দিয়েছেন।": 8396,
  "▁দিল": 8397,
  "▁দিলে": 8398,
  "▁দিল্ল": 8399,
  "▁দিল্লি": 8400,
  "▁দিল্লিতে": 8401,
  "▁দিল্লির": 8402,
  "▁দী": 8403,
  "▁দীপ": 8404,
  "▁দীর্ঘ": 8405,
  "▁দীর্ঘদিন": 8406,
  "▁দু": 8407,
  "▁দু'": 8408,
  "▁দু'টি": 8409,
  "▁দুঃ": 8410,
  "▁দুঃখ": 8411,
  "▁দুই": 8412,
  "▁দুইজন": 8413,
  "▁দুইটি": 8414,
  "▁দুইবার": 8415,
  "▁দুজন": 8416,
  "▁দুটি": 8417,
  "▁দুধ": 8418,
  "▁দুর": 8419,
  "▁দুর্": 8420,
  "▁দুর্গ": 8421,
  "▁দুর্ঘ": 8422,
  "▁দুর্ঘট": 8423,
  "▁দুর্নীতি": 8424,
  "▁দুর্বল": 8425,
  "▁দুর্ভ": 8426,
  "▁দুল": 8427,
  "▁দূ": 8428,
  "▁দূতাব": 8429,
  "▁দূর": 8430,
  "▁দূরত্ব": 8431,
  "▁দূরে": 8432,
  "▁দূষণ": 8433,
  "▁দৃ": 8434,
  "▁দৃঢ়": 8435,
  "▁দৃশ": 8436,
  "▁দৃশ্য": 8437,
  "▁দৃশ্যমান": 8438,
  "▁দৃষ্ট": 8439,
  "▁দৃষ্টি": 8440,
  "▁দৃষ্টিকো": 8441,
  "▁দৃষ্টিভঙ্গ": 8442,
  "▁দৃষ্টিভঙ্গি": 8443,
  "▁দে": 8444,
  "▁দেও": 8445,
  "▁দেওবন্দ": 8446,
  "▁দেওবন্দি": 8447,
  "▁দেওয়া": 8448,
  "▁দেওয়ান": 8449,
  "▁দেওয়ার": 8450,
  "▁দেখ": 8451,
  "▁দেখতে": 8452,
  "▁দেখা": 8453,
  "▁দেখানো": 8454,
  "▁দেখায়": 8455,
  "▁দেখার": 8456,
  "▁দেখিয়ে": 8457,
  "▁দেখুন": 8458,
  "▁দেখে": 8459,
  "▁দেন": 8460,
  "▁দেন,": 8461,
  "▁দেন।": 8462,
  "▁দেব": 8463,
  "▁দেবতা": 8464,
  "▁দেবতাদের": 8465,
  "▁দেবতার": 8466,
  "▁দেবী": 8467,
  "▁দেবীর": 8468,
  "▁দেয়": 8469,
  "▁দেয়,": 8470,
  "▁দেয়।": 8471,
  "▁দেয়া": 8472,
  "▁দেয়ার": 8473,
  "▁দেয়াল": 8474,
  "▁দের": 8475,
  "▁দেল": 8476,
  "▁দেশ": 8477,
  "▁দেশটির": 8478,
  "▁দেশীয়": 8479,
  "▁দেশে": 8480,
  "▁দেশের": 8481,
  "▁দেহ": 8482,
  "▁দেহাবসান": 8483,
  "▁দেহের": 8484,
  "▁দৈ": 8485,
  "▁দৈনিক": 8486,
  "▁দৈর্ঘ": 8487,
  "▁দৈর্ঘ্য": 8488,
  "▁দৈর্ঘ্যের": 8489,
  "▁দো": 8490,
  "▁দোক": 8491,
  "▁দোকান": 8492,
  "▁দোষ": 8493,
  "▁দোষী": 8494,
  "▁দৌ": 8495,
  "▁দৌড়": 8496,
  "▁দৌল": 8497,
  "▁দ্ব": 8498,
  "▁দ্বন্দ্ব": 8499,
  "▁দ্বাদশ": 8500,
  "▁দ্বার": 8501,
  "▁দ্বারা": 8502,
  "▁দ্বি": 8503,
  "▁দ্বিগ": 8504,
  "▁দ্বিতীয়": 8505,
  "▁দ্বিপ": 8506,
  "▁দ্বীপ": 8507,
  "▁দ্বীপপুঞ্জ": 8508,
  "▁দ্বীপপুঞ্জের": 8509,
  "▁দ্বীপে": 8510,
  "▁দ্বীপের": 8511,
  "▁দ্বৈত": 8512,
  "▁দ্য": 8513,
  "▁দ্যা": 8514,
  "▁দ্র": 8515,
  "▁দ্রবণ": 8516,
  "▁দ্রব্য": 8517,
  "▁দ্রাঘ": 8518,
  "▁দ্রাঘিম": 8519,
  "▁দ্রাঘিমাংশ": 8520,
  "▁দ্রুত": 8521,
  "▁ধ": 8522,
  "▁ধন": 8523,
  "▁ধনী": 8524,
  "▁ধর": 8525,
  "▁ধরন": 8526,
  "▁ধরনের": 8527,
  "▁ধরা": 8528,
  "▁ধরার": 8529,
  "▁ধরে": 8530,
  "▁ধর্ম": 8531,
  "▁ধর্মগ্রন্থ": 8532,
  "▁ধর্মতত্ত্ব": 8533,
  "▁ধর্মনিরপেক্ষ": 8534,
  "▁ধর্মান": 8535,
  "▁ধর্মান্ত": 8536,
  "▁ধর্মান্তরিত": 8537,
  "▁ধর্মীয়": 8538,
  "▁ধর্মে": 8539,
  "▁ধর্মের": 8540,
  "▁ধর্ষণ": 8541,
  "▁ধাত": 8542,
  "▁ধাতব": 8543,
  "▁ধাতু": 8544,
  "▁ধান": 8545,
  "▁ধাপ": 8546,
  "▁ধার": 8547,
  "▁ধারণ": 8548,
  "▁ধারণকৃত": 8549,
  "▁ধারণা": 8550,
  "▁ধারণাটি": 8551,
  "▁ধারণার": 8552,
  "▁ধারা": 8553,
  "▁ধারাবাহ": 8554,
  "▁ধারাবাহিক": 8555,
  "▁ধারাবাহিকে": 8556,
  "▁ধারার": 8557,
  "▁ধীর": 8558,
  "▁ধীরে": 8559,
  "▁ধূ": 8560,
  "▁ধ্ব": 8561,
  "▁ধ্বংস": 8562,
  "▁ধ্বংসাবশেষ": 8563,
  "▁ধ্য": 8564,
  "▁ধ্র": 8565,
  "▁ধ্রুপদী": 8566,
  "▁ধ্রুব": 8567,
  "▁ন": 8568,
  "▁নং": 8569,
  "▁নও": 8570,
  "▁নক": 8571,
  "▁নকশ": 8572,
  "▁নকশা": 8573,
  "▁নক্ষ": 8574,
  "▁নক্ষত্র": 8575,
  "▁নগ": 8576,
  "▁নগর": 8577,
  "▁নগরী": 8578,
  "▁নজ": 8579,
  "▁নজর": 8580,
  "▁নজরুল": 8581,
  "▁নতুন": 8582,
  "▁নথ": 8583,
  "▁নথিভুক্ত": 8584,
  "▁নদ": 8585,
  "▁নদী": 8586,
  "▁নদী,": 8587,
  "▁নদী।": 8588,
  "▁নদীটি": 8589,
  "▁নদীটির": 8590,
  "▁নদীতে": 8591,
  "▁নদীর": 8592,
  "▁নন": 8593,
  "▁নন্দ": 8594,
  "▁নব": 8595,
  "▁নবম": 8596,
  "▁নবাব": 8597,
  "▁নবী": 8598,
  "▁নব্য": 8599,
  "▁নভ": 8600,
  "▁নভেম্বর": 8601,
  "▁নভেম্বর,": 8602,
  "▁নভেম্বরে": 8603,
  "▁নম": 8604,
  "▁নমুনা": 8605,
  "▁নম্ব": 8606,
  "▁নম্বর": 8607,
  "▁নম্বরে": 8608,
  "▁নয়": 8609,
  "▁নয়,": 8610,
  "▁নয়।": 8611,
  "▁নয়টি": 8612,
  "▁নর": 8613,
  "▁নরওয়ে": 8614,
  "▁নর্থ": 8615,
  "▁নর্দ": 8616,
  "▁নল": 8617,
  "▁নষ্ট": 8618,
  "▁না": 8619,
  "▁না,": 8620,
  "▁না।": 8621,
  "▁নাই": 8622,
  "▁নাইজ": 8623,
  "▁নাইজের": 8624,
  "▁নাইট": 8625,
  "▁নাইট্র": 8626,
  "▁নাক": 8627,
  "▁নাগ": 8628,
  "▁নাগরিক": 8629,
  "▁নাগরিকদের": 8630,
  "▁নাগাদ": 8631,
  "▁নাচ": 8632,
  "▁নাজ": 8633,
  "▁নাট": 8634,
  "▁নাটক": 8635,
  "▁নাটকে": 8636,
  "▁নাটকের": 8637,
  "▁নাট্য": 8638,
  "▁নাট্যকার": 8639,
  "▁নাত": 8640,
  "▁নাথ": 8641,
  "▁নাদ": 8642,
  "▁নান": 8643,
  "▁নানা": 8644,
  "▁নাব": 8645,
  "▁নাম": 8646,
  "▁নাম:": 8647,
  "▁নাম।": 8648,
  "▁নামক": 8649,
  "▁নামকরণ": 8650,
  "▁নামটি": 8651,
  "▁নামাজ": 8652,
  "▁নামানুসারে": 8653,
  "▁নামে": 8654,
  "▁নামেই": 8655,
  "▁নামেও": 8656,
  "▁নামের": 8657,
  "▁নায়ক": 8658,
  "▁নার": 8659,
  "▁নারায়ণ": 8660,
  "▁নারায়ণগঞ্জ": 8661,
  "▁নারী": 8662,
  "▁নারীদের": 8663,
  "▁নারীব": 8664,
  "▁নারীবাদী": 8665,
  "▁নারীর": 8666,
  "▁নারীরা": 8667,
  "▁নার্স": 8668,
  "▁নাস": 8669,
  "▁নাসির": 8670,
  "▁নাস্ত": 8671,
  "▁নাস্তিক": 8672,
  "▁নি": 8673,
  "▁নি।": 8674,
  "▁নিঃ": 8675,
  "▁নিঃস": 8676,
  "▁নিউ": 8677,
  "▁নিউইয়": 8678,
  "▁নিউইয়র্ক": 8679,
  "▁নিউক্ল": 8680,
  "▁নিউজ": 8681,
  "▁নিউজিল": 8682,
  "▁নিউজিল্যান্ড": 8683,
  "▁নিউজিল্যান্ডীয়": 8684,
  "▁নিউজিল্যান্ডের": 8685,
  "▁নিক": 8686,
  "▁নিকট": 8687,
  "▁নিকটতম": 8688,
  "▁নিকটবর্তী": 8689,
  "▁নিকটে": 8690,
  "▁নিকোল": 8691,
  "▁নিক্ষ": 8692,
  "▁নিক্ষেপ": 8693,
  "▁নিখ": 8694,
  "▁নিচ": 8695,
  "▁নিচে": 8696,
  "▁নিচের": 8697,
  "▁নিজ": 8698,
  "▁নিজস্ব": 8699,
  "▁নিজাম": 8700,
  "▁নিজে": 8701,
  "▁নিজেই": 8702,
  "▁নিজেকে": 8703,
  "▁নিজেদের": 8704,
  "▁নিজের": 8705,
  "▁নিত": 8706,
  "▁নিতে": 8707,
  "▁নিদর্শন": 8708,
  "▁নিন": 8709,
  "▁নিন্দ": 8710,
  "▁নিন্দা": 8711,
  "▁নিপ": 8712,
  "▁নিপীড়": 8713,
  "▁নিবন্ধ": 8714,
  "▁নিবন্ধিত": 8715,
  "▁নিবেদ": 8716,
  "▁নিম": 8717,
  "▁নিম্": 8718,
  "▁নিম্ন": 8719,
  "▁নিম্নরূপ": 8720,
  "▁নিম্নলিখিত": 8721,
  "▁নিম্নে": 8722,
  "▁নিম্নোক্ত": 8723,
  "▁নিয়": 8724,
  "▁নিয়ন্ত্র": 8725,
  "▁নিয়ন্ত্রক": 8726,
  "▁নিয়ন্ত্রণ": 8727,
  "▁নিয়ন্ত্রণে": 8728,
  "▁নিয়ন্ত্রণের": 8729,
  "▁নিয়ন্ত্রিত": 8730,
  "▁নিয়ম": 8731,
  "▁নিয়মিত": 8732,
  "▁নিয়মিতভাবে": 8733,
  "▁নিয়ে": 8734,
  "▁নিয়েছিলেন": 8735,
  "▁নিয়েছিলেন।": 8736,
  "▁নিয়েছে।": 8737,
  "▁নিয়েছেন।": 8738,
  "▁নিয়োগ": 8739,
  "▁নিয়োজ": 8740,
  "▁নিয়োজিত": 8741,
  "▁নিযুক্ত": 8742,
  "▁নির": 8743,
  "▁নিরপেক্ষ": 8744,
  "▁নিরাপ": 8745,
  "▁নিরাপত্তা": 8746,
  "▁নিরাপত্তার": 8747,
  "▁নিরাপদ": 8748,
  "▁নির্": 8749,
  "▁নির্ণ": 8750,
  "▁নির্ণয়": 8751,
  "▁নির্দ": 8752,
  "▁নির্দিষ্ট": 8753,
  "▁নির্দেশ": 8754,
  "▁নির্দেশনা": 8755,
  "▁নির্দেশিকা": 8756,
  "▁নির্ধ": 8757,
  "▁নির্ধারণ": 8758,
  "▁নির্ধারিত": 8759,
  "▁নির্ব": 8760,
  "▁নির্বাচ": 8761,
  "▁নির্বাচন": 8762,
  "▁নির্বাচনী": 8763,
  "▁নির্বাচনে": 8764,
  "▁নির্বাচনের": 8765,
  "▁নির্বাচিত": 8766,
  "▁নির্বাহী": 8767,
  "▁নির্ভ": 8768,
  "▁নির্ভর": 8769,
  "▁নির্ভরশীল": 8770,
  "▁নির্ম": 8771,
  "▁নির্মাণ": 8772,
  "▁নির্মাণের": 8773,
  "▁নির্মাতা": 8774,
  "▁নির্মিত": 8775,
  "▁নির্মিত।": 8776,
  "▁নির্যাত": 8777,
  "▁নির্যাতন": 8778,
  "▁নিল": 8779,
  "▁নিশ্চ": 8780,
  "▁নিশ্চিত": 8781,
  "▁নিষ": 8782,
  "▁নিষিদ্ধ": 8783,
  "▁নিষেধ": 8784,
  "▁নিষেধাজ্ঞ": 8785,
  "▁নিষেধাজ্ঞা": 8786,
  "▁নিষ্": 8787,
  "▁নিহত": 8788,
  "▁নী": 8789,
  "▁নীচে": 8790,
  "▁নীতি": 8791,
  "▁নীতির": 8792,
  "▁নীল": 8793,
  "▁নুর": 8794,
  "▁নুরুল": 8795,
  "▁নূর": 8796,
  "▁নৃ": 8797,
  "▁নৃত": 8798,
  "▁নৃত্য": 8799,
  "▁নৃত্যশিল্পী": 8800,
  "▁নৃত্যের": 8801,
  "▁নে": 8802,
  "▁নেই": 8803,
  "▁নেই,": 8804,
  "▁নেই।": 8805,
  "▁নেওয়া": 8806,
  "▁নেওয়ার": 8807,
  "▁নেট": 8808,
  "▁নেটওয়": 8809,
  "▁নেটওয়ার্ক": 8810,
  "▁নেটওয়ার্কের": 8811,
  "▁নেত": 8812,
  "▁নেতা": 8813,
  "▁নেতাদের": 8814,
  "▁নেতিবাচক": 8815,
  "▁নেতৃ": 8816,
  "▁নেতৃত্ব": 8817,
  "▁নেতৃত্বাধীন": 8818,
  "▁নেতৃত্বে": 8819,
  "▁নেত্র": 8820,
  "▁নেত্রকো": 8821,
  "▁নেদার": 8822,
  "▁নেদারল্যান্ড": 8823,
  "▁নেন": 8824,
  "▁নেন।": 8825,
  "▁নেপ": 8826,
  "▁নেপথ্য": 8827,
  "▁নেপাল": 8828,
  "▁নেপালি": 8829,
  "▁নেপালের": 8830,
  "▁নেভ": 8831,
  "▁নেমে": 8832,
  "▁নেয়": 8833,
  "▁নেয়।": 8834,
  "▁নেয়া": 8835,
  "▁নেয়ার": 8836,
  "▁নৈ": 8837,
  "▁নৈতিক": 8838,
  "▁নো": 8839,
  "▁নোট": 8840,
  "▁নোব": 8841,
  "▁নোবেল": 8842,
  "▁নোয়": 8843,
  "▁নোয়াখালী": 8844,
  "▁নৌ": 8845,
  "▁নৌকা": 8846,
  "▁নৌবাহ": 8847,
  "▁নৌবাহিনী": 8848,
  "▁নৌবাহিনীর": 8849,
  "▁ন্য": 8850,
  "▁ন্যা": 8851,
  "▁ন্যায়": 8852,
  "▁ন্যাশনাল": 8853,
  "▁প": 8854,
  "▁পক্ষ": 8855,
  "▁পক্ষে": 8856,
  "▁পক্ষের": 8857,
  "▁পছ": 8858,
  "▁পছন্দ": 8859,
  "▁পঞ্চ": 8860,
  "▁পঞ্চম": 8861,
  "▁পঞ্চায়েত": 8862,
  "▁পঞ্জ": 8863,
  "▁পট": 8864,
  "▁পটভূমি": 8865,
  "▁পটভূমিতে": 8866,
  "▁পটুয়া": 8867,
  "▁পড়": 8868,
  "▁পড়তে": 8869,
  "▁পড়া": 8870,
  "▁পড়ার": 8871,
  "▁পড়াশ": 8872,
  "▁পড়াশোনা": 8873,
  "▁পড়ুন": 8874,
  "▁পড়ে": 8875,
  "▁পড়ে।": 8876,
  "▁পড়েন": 8877,
  "▁পড়েন।": 8878,
  "▁পণ": 8879,
  "▁পণ্ডিত": 8880,
  "▁পণ্য": 8881,
  "▁পণ্যের": 8882,
  "▁পত": 8883,
  "▁পতন": 8884,
  "▁পতনের": 8885,
  "▁পতাকা": 8886,
  "▁পতিত": 8887,
  "▁পত্র": 8888,
  "▁পত্রিকা": 8889,
  "▁পত্রিকায়": 8890,
  "▁পত্রিকার": 8891,
  "▁পথ": 8892,
  "▁পথে": 8893,
  "▁পথের": 8894,
  "▁পদ": 8895,
  "▁পদক": 8896,
  "▁পদক্ষেপ": 8897,
  "▁পদত্যাগ": 8898,
  "▁পদাতিক": 8899,
  "▁পদার্থ": 8900,
  "▁পদার্থবিজ্ঞান": 8901,
  "▁পদার্থবিজ্ঞানী": 8902,
  "▁পদার্থবিজ্ঞানে": 8903,
  "▁পদার্থবিদ": 8904,
  "▁পদার্থের": 8905,
  "▁পদে": 8906,
  "▁পদ্": 8907,
  "▁পদ্ধ": 8908,
  "▁পদ্ধতি": 8909,
  "▁পদ্ধতিতে": 8910,
  "▁পদ্ধতির": 8911,
  "▁পদ্ম": 8912,
  "▁পদ্মশ": 8913,
  "▁পদ্মশ্রী": 8914,
  "▁পপ": 8915,
  "▁পবিত্র": 8916,
  "▁পয়": 8917,
  "▁পয়েন্ট": 8918,
  "▁পর": 8919,
  "▁পর,": 8920,
  "▁পরগ": 8921,
  "▁পরগনা": 8922,
  "▁পরপর": 8923,
  "▁পরবর্তী": 8924,
  "▁পরবর্তীকালে": 8925,
  "▁পরবর্তীতে": 8926,
  "▁পরম": 8927,
  "▁পরমাণ": 8928,
  "▁পরমাণু": 8929,
  "▁পররাষ্ট্র": 8930,
  "▁পরস্পর": 8931,
  "▁পরাজ": 8932,
  "▁পরাজিত": 8933,
  "▁পরাম": 8934,
  "▁পরামর্শ": 8935,
  "▁পরি": 8936,
  "▁পরিকল্প": 8937,
  "▁পরিকল্পনা": 8938,
  "▁পরিকল্পনার": 8939,
  "▁পরিকল্পিত": 8940,
  "▁পরিচ": 8941,
  "▁পরিচয়": 8942,
  "▁পরিচাল": 8943,
  "▁পরিচালক": 8944,
  "▁পরিচালক,": 8945,
  "▁পরিচালক।": 8946,
  "▁পরিচালনা": 8947,
  "▁পরিচালনায়": 8948,
  "▁পরিচালনার": 8949,
  "▁পরিচালিত": 8950,
  "▁পরিচিত": 8951,
  "▁পরিচিত)": 8952,
  "▁পরিচিত,": 8953,
  "▁পরিচিত।": 8954,
  "▁পরিচিতি": 8955,
  "▁পরিণ": 8956,
  "▁পরিণত": 8957,
  "▁পরিত": 8958,
  "▁পরিদর্শন": 8959,
  "▁পরিধান": 8960,
  "▁পরিপ": 8961,
  "▁পরিপূর্ণ": 8962,
  "▁পরিব": 8963,
  "▁পরিবর্ত": 8964,
  "▁পরিবর্তন": 8965,
  "▁পরিবর্তনের": 8966,
  "▁পরিবর্তিত": 8967,
  "▁পরিবর্তে": 8968,
  "▁পরিবহ": 8969,
  "▁পরিবহন": 8970,
  "▁পরিবহনের": 8971,
  "▁পরিবার": 8972,
  "▁পরিবারে": 8973,
  "▁পরিবারের": 8974,
  "▁পরিবেশ": 8975,
  "▁পরিবেশগত": 8976,
  "▁পরিবেশন": 8977,
  "▁পরিবেশে": 8978,
  "▁পরিবেশের": 8979,
  "▁পরিভাষা": 8980,
  "▁পরিম": 8981,
  "▁পরিমাণ": 8982,
  "▁পরিমাণে": 8983,
  "▁পরিমাপ": 8984,
  "▁পরিল": 8985,
  "▁পরিষ": 8986,
  "▁পরিষদ": 8987,
  "▁পরিষদ।": 8988,
  "▁পরিষদের": 8989,
  "▁পরিষেব": 8990,
  "▁পরিষেবা": 8991,
  "▁পরিষ্কার": 8992,
  "▁পরিস": 8993,
  "▁পরিসংখ্যান": 8994,
  "▁পরিস্থ": 8995,
  "▁পরিস্থিত": 8996,
  "▁পরিস্থিতি": 8997,
  "▁পরিস্থিতিতে": 8998,
  "▁পরী": 8999,
  "▁পরীক্ষ": 9000,
  "▁পরীক্ষা": 9001,
  "▁পরীক্ষামূলক": 9002,
  "▁পরীক্ষায়": 9003,
  "▁পরীক্ষার": 9004,
  "▁পরে": 9005,
  "▁পরে,": 9006,
  "▁পরেই": 9007,
  "▁পরেও": 9008,
  "▁পরের": 9009,
  "▁পর্তুগ": 9010,
  "▁পর্তুগিজ": 9011,
  "▁পর্দ": 9012,
  "▁পর্ন": 9013,
  "▁পর্নোগ্রাফ": 9014,
  "▁পর্নোগ্রাফিক": 9015,
  "▁পর্ব": 9016,
  "▁পর্বত": 9017,
  "▁পর্বতম": 9018,
  "▁পর্বে": 9019,
  "▁পর্বের": 9020,
  "▁পর্য": 9021,
  "▁পর্যট": 9022,
  "▁পর্যটন": 9023,
  "▁পর্যন্ত": 9024,
  "▁পর্যন্ত,": 9025,
  "▁পর্যন্ত।": 9026,
  "▁পর্যবে": 9027,
  "▁পর্যবেক্ষণ": 9028,
  "▁পর্যাপ্ত": 9029,
  "▁পর্যায়": 9030,
  "▁পর্যায়ে": 9031,
  "▁পর্যায়ের": 9032,
  "▁পর্যাল": 9033,
  "▁পর্যালোচনা": 9034,
  "▁পল": 9035,
  "▁পলিটেকনিক": 9036,
  "▁পল্ল": 9037,
  "▁পল্লী": 9038,
  "▁পশ": 9039,
  "▁পশু": 9040,
  "▁পশ্চ": 9041,
  "▁পশ্চিম": 9042,
  "▁পশ্চিমবঙ্গ": 9043,
  "▁পশ্চিমবঙ্গে": 9044,
  "▁পশ্চিমবঙ্গের": 9045,
  "▁পশ্চিমা": 9046,
  "▁পশ্চিমে": 9047,
  "▁পা": 9048,
  "▁পাঁচ": 9049,
  "▁পাঁচটি": 9050,
  "▁পাই": 9051,
  "▁পাইল": 9052,
  "▁পাইলট": 9053,
  "▁পাউন্ড": 9054,
  "▁পাওয়া": 9055,
  "▁পাওয়ার": 9056,
  "▁পাক": 9057,
  "▁পাকিস্ত": 9058,
  "▁পাকিস্তান": 9059,
  "▁পাকিস্তানি": 9060,
  "▁পাকিস্তানে": 9061,
  "▁পাকিস্তানের": 9062,
  "▁পাখ": 9063,
  "▁পাখি": 9064,
  "▁পাখির": 9065,
  "▁পাগ": 9066,
  "▁পাঞ্জ": 9067,
  "▁পাঞ্জাব": 9068,
  "▁পাঞ্জাবি": 9069,
  "▁পাঞ্জাবের": 9070,
  "▁পাট": 9071,
  "▁পাঠ": 9072,
  "▁পাঠক": 9073,
  "▁পাঠানো": 9074,
  "▁পাঠিয়ে": 9075,
  "▁পাঠ্য": 9076,
  "▁পাড়": 9077,
  "▁পাড়া": 9078,
  "▁পাণ্ড": 9079,
  "▁পাত": 9080,
  "▁পাতলা": 9081,
  "▁পাতা": 9082,
  "▁পাতার": 9083,
  "▁পাত্র": 9084,
  "▁পাথ": 9085,
  "▁পাথর": 9086,
  "▁পাথরের": 9087,
  "▁পাদ": 9088,
  "▁পাদট": 9089,
  "▁পাদটীকা": 9090,
  "▁পান": 9091,
  "▁পান।": 9092,
  "▁পানি": 9093,
  "▁পানিতে": 9094,
  "▁পানির": 9095,
  "▁পানীয়": 9096,
  "▁পান্ড": 9097,
  "▁পাপ": 9098,
  "▁পাব": 9099,
  "▁পাবনা": 9100,
  "▁পাবলিক": 9101,
  "▁পাবে": 9102,
  "▁পায়": 9103,
  "▁পায়,": 9104,
  "▁পায়।": 9105,
  "▁পায়ে": 9106,
  "▁পায়ের": 9107,
  "▁পার": 9108,
  "▁পারদর্শ": 9109,
  "▁পারদর্শী": 9110,
  "▁পারফর": 9111,
  "▁পারফরম্যান্স": 9112,
  "▁পারবে": 9113,
  "▁পারমাণবিক": 9114,
  "▁পারস্পর": 9115,
  "▁পারস্পরিক": 9116,
  "▁পারস্য": 9117,
  "▁পারিবার": 9118,
  "▁পারিবারিক": 9119,
  "▁পারে": 9120,
  "▁পারে,": 9121,
  "▁পারে:": 9122,
  "▁পারে।": 9123,
  "▁পারেন": 9124,
  "▁পারেন।": 9125,
  "▁পারেননি।": 9126,
  "▁পারেনি।": 9127,
  "▁পার্": 9128,
  "▁পার্ক": 9129,
  "▁পার্ট": 9130,
  "▁পার্টি": 9131,
  "▁পার্টির": 9132,
  "▁পার্থ": 9133,
  "▁পার্থক্য": 9134,
  "▁পার্ব": 9135,
  "▁পার্বতী": 9136,
  "▁পার্বত্য": 9137,
  "▁পার্শ্ব": 9138,
  "▁পার্শ্ববর্তী": 9139,
  "▁পার্শ্বীয়": 9140,
  "▁পার্স": 9141,
  "▁পাল": 9142,
  "▁পালন": 9143,
  "▁পালিত": 9144,
  "▁পালিয়ে": 9145,
  "▁পাশ": 9146,
  "▁পাশা": 9147,
  "▁পাশাপ": 9148,
  "▁পাশাপাশি": 9149,
  "▁পাশে": 9150,
  "▁পাশের": 9151,
  "▁পাশ্চ": 9152,
  "▁পাস": 9153,
  "▁পাহ": 9154,
  "▁পাহাড়": 9155,
  "▁পাহাড়ের": 9156,
  "▁পি": 9157,
  "▁পি.": 9158,
  "▁পিএইচ": 9159,
  "▁পিএইচডি": 9160,
  "▁পিক": 9161,
  "▁পিকচ": 9162,
  "▁পিছ": 9163,
  "▁পিছনে": 9164,
  "▁পিছনের": 9165,
  "▁পিট": 9166,
  "▁পিটার": 9167,
  "▁পিত": 9168,
  "▁পিতা": 9169,
  "▁পিতাম": 9170,
  "▁পিতার": 9171,
  "▁পিন": 9172,
  "▁পিপ": 9173,
  "▁পিপলস": 9174,
  "▁পির": 9175,
  "▁পিরোজ": 9176,
  "▁পিরোজপুর": 9177,
  "▁পীর": 9178,
  "▁পু": 9179,
  "▁পুঁ": 9180,
  "▁পুকুর": 9181,
  "▁পুত": 9182,
  "▁পুত্র": 9183,
  "▁পুন": 9184,
  "▁পুনঃ": 9185,
  "▁পুনর": 9186,
  "▁পুনরায়": 9187,
  "▁পুনরুদ্ধ": 9188,
  "▁পুনরুদ্ধার": 9189,
  "▁পুনর্গ": 9190,
  "▁পুনর্জ": 9191,
  "▁পুনর্নি": 9192,
  "▁পুনর্নির্মাণ": 9193,
  "▁পুনর্ব": 9194,
  "▁পুর": 9195,
  "▁পুরনো": 9196,
  "▁পুরস্কার": 9197,
  "▁পুরস্কার,": 9198,
  "▁পুরস্কারে": 9199,
  "▁পুরস্কারের": 9200,
  "▁পুরাণ": 9201,
  "▁পুরাত": 9202,
  "▁পুরাতন": 9203,
  "▁পুরানো": 9204,
  "▁পুরু": 9205,
  "▁পুরুষ": 9206,
  "▁পুরুষদের": 9207,
  "▁পুরুষের": 9208,
  "▁পুরো": 9209,
  "▁পুরোপ": 9210,
  "▁পুরোপুরি": 9211,
  "▁পুরোহিত": 9212,
  "▁পুল": 9213,
  "▁পুলিশ": 9214,
  "▁পুলিশের": 9215,
  "▁পুষ্টি": 9216,
  "▁পূ": 9217,
  "▁পূজ": 9218,
  "▁পূজা": 9219,
  "▁পূরণ": 9220,
  "▁পূর্ণ": 9221,
  "▁পূর্ণাঙ্গ": 9222,
  "▁পূর্ব": 9223,
  "▁পূর্বপুরুষ": 9224,
  "▁পূর্ববর্তী": 9225,
  "▁পূর্বে": 9226,
  "▁পূর্বেই": 9227,
  "▁পূর্বের": 9228,
  "▁পৃ": 9229,
  "▁পৃথ": 9230,
  "▁পৃথক": 9231,
  "▁পৃথিব": 9232,
  "▁পৃথিবী": 9233,
  "▁পৃথিবীতে": 9234,
  "▁পৃথিবীর": 9235,
  "▁পৃষ্ঠ": 9236,
  "▁পৃষ্ঠপোষ": 9237,
  "▁পৃষ্ঠপোষক": 9238,
  "▁পে": 9239,
  "▁পেই": 9240,
  "▁পেছ": 9241,
  "▁পেছনে": 9242,
  "▁পেট": 9243,
  "▁পেট্র": 9244,
  "▁পেতে": 9245,
  "▁পেন": 9246,
  "▁পেয়ে": 9247,
  "▁পেয়েছিল": 9248,
  "▁পেয়েছিল।": 9249,
  "▁পেয়েছিলেন": 9250,
  "▁পেয়েছিলেন।": 9251,
  "▁পেয়েছে": 9252,
  "▁পেয়েছে।": 9253,
  "▁পেয়েছেন।": 9254,
  "▁পের": 9255,
  "▁পেরে": 9256,
  "▁পেল": 9257,
  "▁পেলে": 9258,
  "▁পেশ": 9259,
  "▁পেশা": 9260,
  "▁পেশাদার": 9261,
  "▁পেস": 9262,
  "▁পো": 9263,
  "▁পোপ": 9264,
  "▁পোর্ট": 9265,
  "▁পোল": 9266,
  "▁পোশাক": 9267,
  "▁পোস্ট": 9268,
  "▁পৌ": 9269,
  "▁পৌঁ": 9270,
  "▁পৌঁছ": 9271,
  "▁পৌঁছে": 9272,
  "▁পৌর": 9273,
  "▁পৌরসভা": 9274,
  "▁পৌরসভার": 9275,
  "▁পৌরাণিক": 9276,
  "▁প্যা": 9277,
  "▁প্যাট": 9278,
  "▁প্যান": 9279,
  "▁প্যার": 9280,
  "▁প্যারা": 9281,
  "▁প্যারিস": 9282,
  "▁প্যাল": 9283,
  "▁প্যাস": 9284,
  "▁প্র": 9285,
  "▁প্রক": 9286,
  "▁প্রকল্প": 9287,
  "▁প্রকল্পটি": 9288,
  "▁প্রকল্পের": 9289,
  "▁প্রকার": 9290,
  "▁প্রকারের": 9291,
  "▁প্রকাশ": 9292,
  "▁প্রকাশক": 9293,
  "▁প্রকাশনা": 9294,
  "▁প্রকাশিত": 9295,
  "▁প্রকাশের": 9296,
  "▁প্রকৃত": 9297,
  "▁প্রকৃতপক্ষে": 9298,
  "▁প্রকৃতি": 9299,
  "▁প্রকৃতির": 9300,
  "▁প্রকৌশ": 9301,
  "▁প্রকৌশল": 9302,
  "▁প্রকৌশলী": 9303,
  "▁প্রক্র": 9304,
  "▁প্রক্রিয়": 9305,
  "▁প্রক্রিয়া": 9306,
  "▁প্রক্রিয়ায়": 9307,
  "▁প্রক্রিয়ার": 9308,
  "▁প্রখ্যাত": 9309,
  "▁প্রচ": 9310,
  "▁প্রচল": 9311,
  "▁প্রচলন": 9312,
  "▁প্রচলিত": 9313,
  "▁প্রচার": 9314,
  "▁প্রচারণ": 9315,
  "▁প্রচারিত": 9316,
  "▁প্রচারের": 9317,
  "▁প্রচুর": 9318,
  "▁প্রচে": 9319,
  "▁প্রচেষ্ট": 9320,
  "▁প্রচেষ্টা": 9321,
  "▁প্রজ": 9322,
  "▁প্রজন": 9323,
  "▁প্রজনন": 9324,
  "▁প্রজন্ম": 9325,
  "▁প্রজন্মের": 9326,
  "▁প্রজাত": 9327,
  "▁প্রজাতন্ত্র": 9328,
  "▁প্রজাতন্ত্রের": 9329,
  "▁প্রজাতি": 9330,
  "▁প্রজাতির": 9331,
  "▁প্রজাপতি": 9332,
  "▁প্রণ": 9333,
  "▁প্রণয়": 9334,
  "▁প্রণয়ধর্মী": 9335,
  "▁প্রণয়ন": 9336,
  "▁প্রত": 9337,
  "▁প্রতি": 9338,
  "▁প্রতিক": 9339,
  "▁প্রতিক্র": 9340,
  "▁প্রতিক্রিয়া": 9341,
  "▁প্রতিটি": 9342,
  "▁প্রতিদিন": 9343,
  "▁প্রতিদ্ব": 9344,
  "▁প্রতিদ্বন্দ্ব": 9345,
  "▁প্রতিদ্বন্দ্বিতা": 9346,
  "▁প্রতিদ্বন্দ্বী": 9347,
  "▁প্রতিনিধ": 9348,
  "▁প্রতিনিধি": 9349,
  "▁প্রতিনিধিত্ব": 9350,
  "▁প্রতিনিধিত্বকারী": 9351,
  "▁প্রতিপক্ষ": 9352,
  "▁প্রতিফল": 9353,
  "▁প্রতিফলিত": 9354,
  "▁প্রতিবছর": 9355,
  "▁প্রতিবন্ধ": 9356,
  "▁প্রতিবাদ": 9357,
  "▁প্রতিবেদ": 9358,
  "▁প্রতিবেদন": 9359,
  "▁প্রতিবেদনে": 9360,
  "▁প্রতিবেশ": 9361,
  "▁প্রতিবেশী": 9362,
  "▁প্রতিযোগ": 9363,
  "▁প্রতিযোগিত": 9364,
  "▁প্রতিযোগিতা": 9365,
  "▁প্রতিযোগিতায়": 9366,
  "▁প্রতিযোগিতার": 9367,
  "▁প্রতিযোগী": 9368,
  "▁প্রতির": 9369,
  "▁প্রতিরক্ষ": 9370,
  "▁প্রতিরক্ষা": 9371,
  "▁প্রতিরোধ": 9372,
  "▁প্রতিশোধ": 9373,
  "▁প্রতিশ্রুতি": 9374,
  "▁প্রতিষ্ঠ": 9375,
  "▁প্রতিষ্ঠা": 9376,
  "▁প্রতিষ্ঠাতা": 9377,
  "▁প্রতিষ্ঠান": 9378,
  "▁প্রতিষ্ঠান।": 9379,
  "▁প্রতিষ্ঠানটি": 9380,
  "▁প্রতিষ্ঠানে": 9381,
  "▁প্রতিষ্ঠানের": 9382,
  "▁প্রতিষ্ঠার": 9383,
  "▁প্রতিষ্ঠিত": 9384,
  "▁প্রতিস্থ": 9385,
  "▁প্রতিস্থাপন": 9386,
  "▁প্রতিস্থাপিত": 9387,
  "▁প্রতীক": 9388,
  "▁প্রত্ন": 9389,
  "▁প্রত্নতত্ত্ব": 9390,
  "▁প্রত্নতাত্ত্বিক": 9391,
  "▁প্রত্য": 9392,
  "▁প্রত্যক্ষ": 9393,
  "▁প্রত্যা": 9394,
  "▁প্রত্যাখ্যান": 9395,
  "▁প্রত্যাবর্ত": 9396,
  "▁প্রত্যাহার": 9397,
  "▁প্রত্যেক": 9398,
  "▁প্রথ": 9399,
  "▁প্রথম": 9400,
  "▁প্রথম-শ্রেণীর": 9401,
  "▁প্রথমদিকে": 9402,
  "▁প্রথমবারের": 9403,
  "▁প্রথমার্ধ": 9404,
  "▁প্রথমে": 9405,
  "▁প্রথা": 9406,
  "▁প্রথাগত": 9407,
  "▁প্রদ": 9408,
  "▁প্রদত্ত": 9409,
  "▁প্রদর্শ": 9410,
  "▁প্রদর্শন": 9411,
  "▁প্রদর্শনী": 9412,
  "▁প্রদর্শনের": 9413,
  "▁প্রদর্শিত": 9414,
  "▁প্রদান": 9415,
  "▁প্রদানের": 9416,
  "▁প্রদেশ": 9417,
  "▁প্রদেশে": 9418,
  "▁প্রদেশের": 9419,
  "▁প্রধান": 9420,
  "▁প্রধানত": 9421,
  "▁প্রধানমন্ত্র": 9422,
  "▁প্রধানমন্ত্রী": 9423,
  "▁প্রধানমন্ত্রীর": 9424,
  "▁প্রফেস": 9425,
  "▁প্রফেসর": 9426,
  "▁প্রব": 9427,
  "▁প্রবণ": 9428,
  "▁প্রবণতা": 9429,
  "▁প্রবন্ধ": 9430,
  "▁প্রবর্ত": 9431,
  "▁প্রবর্তন": 9432,
  "▁প্রবর্তিত": 9433,
  "▁প্রবল": 9434,
  "▁প্রবাসী": 9435,
  "▁প্রবাহ": 9436,
  "▁প্রবাহিত": 9437,
  "▁প্রবেশ": 9438,
  "▁প্রবেশাধিকার": 9439,
  "▁প্রবেশের": 9440,
  "▁প্রভ": 9441,
  "▁প্রভাব": 9442,
  "▁প্রভাবশালী": 9443,
  "▁প্রভাবিত": 9444,
  "▁প্রভাবের": 9445,
  "▁প্রভৃতি": 9446,
  "▁প্রম": 9447,
  "▁প্রমাণ": 9448,
  "▁প্রমাণিত": 9449,
  "▁প্রমুখ": 9450,
  "▁প্রয়": 9451,
  "▁প্রয়াত": 9452,
  "▁প্রয়োগ": 9453,
  "▁প্রয়োজন": 9454,
  "▁প্রয়োজন।": 9455,
  "▁প্রয়োজনীয়": 9456,
  "▁প্রয়োজনীয়তা": 9457,
  "▁প্রযুক্ত": 9458,
  "▁প্রযুক্তি": 9459,
  "▁প্রযুক্তিগত": 9460,
  "▁প্রযুক্তির": 9461,
  "▁প্রযোজ": 9462,
  "▁প্রযোজক": 9463,
  "▁প্রযোজনা": 9464,
  "▁প্রযোজিত": 9465,
  "▁প্রশ": 9466,
  "▁প্রশংস": 9467,
  "▁প্রশংসা": 9468,
  "▁প্রশংসিত": 9469,
  "▁প্রশস্ত": 9470,
  "▁প্রশান্ত": 9471,
  "▁প্রশাস": 9472,
  "▁প্রশাসক": 9473,
  "▁প্রশাসন": 9474,
  "▁প্রশাসনিক": 9475,
  "▁প্রশাসনের": 9476,
  "▁প্রশিক্ষ": 9477,
  "▁প্রশিক্ষণ": 9478,
  "▁প্রশিক্ষণের": 9479,
  "▁প্রশ্ন": 9480,
  "▁প্রস": 9481,
  "▁প্রসঙ্গ": 9482,
  "▁প্রসঙ্গে": 9483,
  "▁প্রসাদ": 9484,
  "▁প্রসার": 9485,
  "▁প্রসারিত": 9486,
  "▁প্রসিদ্ধ": 9487,
  "▁প্রস্ত": 9488,
  "▁প্রস্তর": 9489,
  "▁প্রস্তাব": 9490,
  "▁প্রস্তাবিত": 9491,
  "▁প্রস্তুত": 9492,
  "▁প্রস্তুতি": 9493,
  "▁প্রস্থ": 9494,
  "▁প্রা": 9495,
  "▁প্রাইভ": 9496,
  "▁প্রাইভেট": 9497,
  "▁প্রাইম": 9498,
  "▁প্রাক": 9499,
  "▁প্রাকৃতিক": 9500,
  "▁প্রাক্তন": 9501,
  "▁প্রাগ": 9502,
  "▁প্রাচ": 9503,
  "▁প্রাচীন": 9504,
  "▁প্রাচীনতম": 9505,
  "▁প্রাচীর": 9506,
  "▁প্রাণ": 9507,
  "▁প্রাণী": 9508,
  "▁প্রাণীদের": 9509,
  "▁প্রাণীর": 9510,
  "▁প্রাতি": 9511,
  "▁প্রাতিষ্ঠানিক": 9512,
  "▁প্রাথমিক": 9513,
  "▁প্রাথমিকভাবে": 9514,
  "▁প্রাদেশিক": 9515,
  "▁প্রাধান": 9516,
  "▁প্রাধান্য": 9517,
  "▁প্রান্ত": 9518,
  "▁প্রান্তে": 9519,
  "▁প্রাপক": 9520,
  "▁প্রাপ্ত": 9521,
  "▁প্রাপ্তবয়স্ক": 9522,
  "▁প্রামাণ": 9523,
  "▁প্রামাণ্য": 9524,
  "▁প্রায়": 9525,
  "▁প্রায়ই": 9526,
  "▁প্রায়শ": 9527,
  "▁প্রায়শই": 9528,
  "▁প্রারম্ভ": 9529,
  "▁প্রারম্ভিক": 9530,
  "▁প্রার্থ": 9531,
  "▁প্রার্থনা": 9532,
  "▁প্রার্থী": 9533,
  "▁প্রাস": 9534,
  "▁প্রাসাদ": 9535,
  "▁প্রিন্স": 9536,
  "▁প্রিম": 9537,
  "▁প্রিমিয়ার": 9538,
  "▁প্রিয়": 9539,
  "▁প্রেক্ষ": 9540,
  "▁প্রেক্ষাগৃহ": 9541,
  "▁প্রেক্ষাপ": 9542,
  "▁প্রেম": 9543,
  "▁প্রেমের": 9544,
  "▁প্রের": 9545,
  "▁প্রেরণ": 9546,
  "▁প্রেস": 9547,
  "▁প্রেসিড": 9548,
  "▁প্রেসিডেন্ট": 9549,
  "▁প্রেসিডেন্সি": 9550,
  "▁প্রো": 9551,
  "▁প্রোগ্র": 9552,
  "▁প্রোগ্রাম": 9553,
  "▁প্রোগ্রামিং": 9554,
  "▁প্রোট": 9555,
  "▁প্রোটি": 9556,
  "▁প্রোটিন": 9557,
  "▁প্রোডাক": 9558,
  "▁প্রোফ": 9559,
  "▁প্রোফাইল": 9560,
  "▁প্ল": 9561,
  "▁প্লাস্ট": 9562,
  "▁প্লে": 9563,
  "▁প্লেট": 9564,
  "▁প্ল্যাটফর্ম": 9565,
  "▁ফ": 9566,
  "▁ফক্স": 9567,
  "▁ফজল": 9568,
  "▁ফট": 9569,
  "▁ফয়": 9570,
  "▁ফর": 9571,
  "▁ফরাসি": 9572,
  "▁ফরিদ": 9573,
  "▁ফরিদপুর": 9574,
  "▁ফর্ম": 9575,
  "▁ফল": 9576,
  "▁ফলশ্রুত": 9577,
  "▁ফলশ্রুতিতে": 9578,
  "▁ফলস্বরূপ": 9579,
  "▁ফলা": 9580,
  "▁ফলাফল": 9581,
  "▁ফলে": 9582,
  "▁ফস": 9583,
  "▁ফসল": 9584,
  "▁ফাঁ": 9585,
  "▁ফাংশ": 9586,
  "▁ফাংশন": 9587,
  "▁ফাইন": 9588,
  "▁ফাইনাল": 9589,
  "▁ফাইনালে": 9590,
  "▁ফাইল": 9591,
  "▁ফাউন্ড": 9592,
  "▁ফাউন্ডেশন": 9593,
  "▁ফাত": 9594,
  "▁ফায়ার": 9595,
  "▁ফার": 9596,
  "▁ফারুক": 9597,
  "▁ফার্": 9598,
  "▁ফার্ম": 9599,
  "▁ফার্মাস": 9600,
  "▁ফার্সি": 9601,
  "▁ফার্স্ট": 9602,
  "▁ফাল": 9603,
  "▁ফাস্ট": 9604,
  "▁ফি": 9605,
  "▁ফিউ": 9606,
  "▁ফিক": 9607,
  "▁ফিজ": 9608,
  "▁ফিন": 9609,
  "▁ফিফা": 9610,
  "▁ফির": 9611,
  "▁ফিরিয়ে": 9612,
  "▁ফিরে": 9613,
  "▁ফিল": 9614,
  "▁ফিলিপ": 9615,
  "▁ফিলিপাইন": 9616,
  "▁ফিলিস্ত": 9617,
  "▁ফিলিস্তিনি": 9618,
  "▁ফিল্ড": 9619,
  "▁ফিল্ড)": 9620,
  "▁ফিল্ম": 9621,
  "▁ফিল্মফেয়ার": 9622,
  "▁ফুট": 9623,
  "▁ফুট)": 9624,
  "▁ফুট)।": 9625,
  "▁ফুটব": 9626,
  "▁ফুটবল": 9627,
  "▁ফুটবলার": 9628,
  "▁ফুটবলে": 9629,
  "▁ফুটবলের": 9630,
  "▁ফুল": 9631,
  "▁ফুলের": 9632,
  "▁ফে": 9633,
  "▁ফেড": 9634,
  "▁ফেডারেল": 9635,
  "▁ফেডারেশন": 9636,
  "▁ফেন": 9637,
  "▁ফেনী": 9638,
  "▁ফেব্র": 9639,
  "▁ফেব্রুয়ার": 9640,
  "▁ফেব্রুয়ারি": 9641,
  "▁ফেব্রুয়ারি,": 9642,
  "▁ফেব্রুয়ারিতে": 9643,
  "▁ফের": 9644,
  "▁ফেরত": 9645,
  "▁ফেল": 9646,
  "▁ফেলা": 9647,
  "▁ফেলে": 9648,
  "▁ফেলে।": 9649,
  "▁ফেলো": 9650,
  "▁ফেস": 9651,
  "▁ফো": 9652,
  "▁ফোক": 9653,
  "▁ফোট": 9654,
  "▁ফোন": 9655,
  "▁ফোর": 9656,
  "▁ফোর্স": 9657,
  "▁ফৌ": 9658,
  "▁ফৌজ": 9659,
  "▁ফ্যাক": 9660,
  "▁ফ্যান": 9661,
  "▁ফ্যাশন": 9662,
  "▁ফ্র": 9663,
  "▁ফ্রন্ট": 9664,
  "▁ফ্রাঙ্ক": 9665,
  "▁ফ্রান্স": 9666,
  "▁ফ্রান্সিস": 9667,
  "▁ফ্রান্সে": 9668,
  "▁ফ্রান্সের": 9669,
  "▁ফ্রি": 9670,
  "▁ফ্রিড": 9671,
  "▁ফ্রে": 9672,
  "▁ফ্রেড": 9673,
  "▁ফ্ল": 9674,
  "▁ফ্লাইট": 9675,
  "▁ফ্লোর": 9676,
  "▁ফ্লোরিড": 9677,
  "▁ব": 9678,
  "▁বংশ": 9679,
  "▁বংশধর": 9680,
  "▁বংশের": 9681,
  "▁বংশোদ্": 9682,
  "▁বংশোদ্ভূত": 9683,
  "▁বই": 9684,
  "▁বইটি": 9685,
  "▁বইয়ের": 9686,
  "▁বকর": 9687,
  "▁বক্ত": 9688,
  "▁বক্তব্য": 9689,
  "▁বক্তৃত": 9690,
  "▁বক্তৃতা": 9691,
  "▁বক্স": 9692,
  "▁বগু": 9693,
  "▁বগুড়া": 9694,
  "▁বঙ্গ": 9695,
  "▁বঙ্গবন্ধু": 9696,
  "▁বছ": 9697,
  "▁বছর": 9698,
  "▁বছর,": 9699,
  "▁বছর।": 9700,
  "▁বছরে": 9701,
  "▁বছরের": 9702,
  "▁বছরেরও": 9703,
  "▁বজ": 9704,
  "▁বজায়": 9705,
  "▁বট": 9706,
  "▁বড়": 9707,
  "▁বদ": 9708,
  "▁বদর": 9709,
  "▁বদলে": 9710,
  "▁বধ": 9711,
  "▁বন": 9712,
  "▁বনাম": 9713,
  "▁বন্দ": 9714,
  "▁বন্দর": 9715,
  "▁বন্দী": 9716,
  "▁বন্দ্য": 9717,
  "▁বন্দ্যোপাধ্যায়": 9718,
  "▁বন্ধ": 9719,
  "▁বন্ধন": 9720,
  "▁বন্ধনে": 9721,
  "▁বন্ধু": 9722,
  "▁বন্ধুত্ব": 9723,
  "▁বন্য": 9724,
  "▁বন্যপ্র": 9725,
  "▁বন্যা": 9726,
  "▁বব": 9727,
  "▁বয়": 9728,
  "▁বয়স": 9729,
  "▁বয়সভিত্তিক": 9730,
  "▁বয়সী": 9731,
  "▁বয়সী।": 9732,
  "▁বয়সে": 9733,
  "▁বয়সের": 9734,
  "▁বয়স্ক": 9735,
  "▁বয়ে": 9736,
  "▁বর": 9737,
  "▁বরং": 9738,
  "▁বরফ": 9739,
  "▁বরাদ্দ": 9740,
  "▁বরাবর": 9741,
  "▁বরিশ": 9742,
  "▁বরিশাল": 9743,
  "▁বর্গ": 9744,
  "▁বর্গকিল": 9745,
  "▁বর্গকিলোমিটার": 9746,
  "▁বর্জ": 9747,
  "▁বর্জ্য": 9748,
  "▁বর্ণ": 9749,
  "▁বর্ণনা": 9750,
  "▁বর্ণিত": 9751,
  "▁বর্ণের": 9752,
  "▁বর্ত": 9753,
  "▁বর্তমান": 9754,
  "▁বর্তমানে": 9755,
  "▁বর্ধ": 9756,
  "▁বর্ধমান": 9757,
  "▁বর্ধিত": 9758,
  "▁বর্ম": 9759,
  "▁বর্ষ": 9760,
  "▁বর্ষপঞ্জ": 9761,
  "▁বর্ষপঞ্জির": 9762,
  "▁বর্ষসেরা": 9763,
  "▁বল": 9764,
  "▁বলতে": 9765,
  "▁বলা": 9766,
  "▁বলার": 9767,
  "▁বলিউড": 9768,
  "▁বলে": 9769,
  "▁বলে,": 9770,
  "▁বলে।": 9771,
  "▁বলেছিলেন": 9772,
  "▁বলেছিলেন,": 9773,
  "▁বলেছেন": 9774,
  "▁বলেছেন,": 9775,
  "▁বলেন": 9776,
  "▁বলেন,": 9777,
  "▁বলেন।": 9778,
  "▁বলের": 9779,
  "▁বস": 9780,
  "▁বসতি": 9781,
  "▁বসন্ত": 9782,
  "▁বসব": 9783,
  "▁বসবাস": 9784,
  "▁বসবাসকারী": 9785,
  "▁বসু": 9786,
  "▁বসে": 9787,
  "▁বস্ত": 9788,
  "▁বস্তু": 9789,
  "▁বস্তুর": 9790,
  "▁বস্ত্র": 9791,
  "▁বহ": 9792,
  "▁বহন": 9793,
  "▁বহি": 9794,
  "▁বহি:": 9795,
  "▁বহিঃ": 9796,
  "▁বহিঃসংযোগ": 9797,
  "▁বহির": 9798,
  "▁বহু": 9799,
  "▁বহুম": 9800,
  "▁বহুল": 9801,
  "▁বা": 9802,
  "▁বাঁ": 9803,
  "▁বাঁচ": 9804,
  "▁বাঁধ": 9805,
  "▁বাঁশ": 9806,
  "▁বাংল": 9807,
  "▁বাংলা": 9808,
  "▁বাংলাদেশ": 9809,
  "▁বাংলাদেশ,": 9810,
  "▁বাংলাদেশি": 9811,
  "▁বাংলাদেশী": 9812,
  "▁বাংলাদেশে": 9813,
  "▁বাংলাদেশের": 9814,
  "▁বাংলায়": 9815,
  "▁বাংলার": 9816,
  "▁বাই": 9817,
  "▁বাইজ": 9818,
  "▁বাইজেন্টাইন": 9819,
  "▁বাইপ": 9820,
  "▁বাইব": 9821,
  "▁বাইরে": 9822,
  "▁বাইরের": 9823,
  "▁বাউ": 9824,
  "▁বাক": 9825,
  "▁বাকি": 9826,
  "▁বাক্স": 9827,
  "▁বাগ": 9828,
  "▁বাগদ": 9829,
  "▁বাগান": 9830,
  "▁বাগের": 9831,
  "▁বাঘ": 9832,
  "▁বাঙ": 9833,
  "▁বাঙালি": 9834,
  "▁বাচ্চ": 9835,
  "▁বাছ": 9836,
  "▁বাছাই": 9837,
  "▁বাছাইপ": 9838,
  "▁বাছাইপর্ব": 9839,
  "▁বাজ": 9840,
  "▁বাজার": 9841,
  "▁বাজারে": 9842,
  "▁বাজারের": 9843,
  "▁বাট": 9844,
  "▁বাড়": 9845,
  "▁বাড়ি": 9846,
  "▁বাড়িতে": 9847,
  "▁বাড়িয়ে": 9848,
  "▁বাড়ির": 9849,
  "▁বাণ": 9850,
  "▁বাণিজ": 9851,
  "▁বাণিজ্য": 9852,
  "▁বাণিজ্যিক": 9853,
  "▁বাত": 9854,
  "▁বাতিল": 9855,
  "▁বাদ": 9856,
  "▁বাদশাহ": 9857,
  "▁বাদে": 9858,
  "▁বাদ্য": 9859,
  "▁বাদ্যযন্ত্র": 9860,
  "▁বাধ": 9861,
  "▁বাধা": 9862,
  "▁বাধ্য": 9863,
  "▁বাধ্যতামূলক": 9864,
  "▁বান": 9865,
  "▁বান্দ": 9866,
  "▁বাফ": 9867,
  "▁বাফটা": 9868,
  "▁বাব": 9869,
  "▁বাবা": 9870,
  "▁বাবার": 9871,
  "▁বাবু": 9872,
  "▁বাম": 9873,
  "▁বামহ": 9874,
  "▁বায়": 9875,
  "▁বায়ু": 9876,
  "▁বায়ুম": 9877,
  "▁বায়ুমণ্ড": 9878,
  "▁বার": 9879,
  "▁বারবার": 9880,
  "▁বারের": 9881,
  "▁বার্": 9882,
  "▁বার্তা": 9883,
  "▁বার্ন": 9884,
  "▁বার্ব": 9885,
  "▁বার্ম": 9886,
  "▁বার্ল": 9887,
  "▁বার্লিন": 9888,
  "▁বার্ষিক": 9889,
  "▁বার্সেল": 9890,
  "▁বাল": 9891,
  "▁বালিকা": 9892,
  "▁বাষ্প": 9893,
  "▁বাস": 9894,
  "▁বাসস্থান": 9895,
  "▁বাসা": 9896,
  "▁বাসিন্দ": 9897,
  "▁বাসিন্দা": 9898,
  "▁বাস্ত": 9899,
  "▁বাস্তব": 9900,
  "▁বাস্তবায়": 9901,
  "▁বাস্তবায়ন": 9902,
  "▁বাস্তু": 9903,
  "▁বাহ": 9904,
  "▁বাহর": 9905,
  "▁বাহাদুর": 9906,
  "▁বাহিনী": 9907,
  "▁বাহিনীকে": 9908,
  "▁বাহিনীর": 9909,
  "▁বাহ্যিক": 9910,
  "▁বি": 9911,
  "▁বি.": 9912,
  "▁বিংশ": 9913,
  "▁বিএন": 9914,
  "▁বিক": 9915,
  "▁বিকল্প": 9916,
  "▁বিকশিত": 9917,
  "▁বিকাশ": 9918,
  "▁বিকাশের": 9919,
  "▁বিকির": 9920,
  "▁বিক্র": 9921,
  "▁বিক্রম": 9922,
  "▁বিক্রয়": 9923,
  "▁বিক্রি": 9924,
  "▁বিক্রিয়া": 9925,
  "▁বিক্ষ": 9926,
  "▁বিক্ষোভ": 9927,
  "▁বিখ্যাত": 9928,
  "▁বিখ্যাত।": 9929,
  "▁বিগ": 9930,
  "▁বিচ": 9931,
  "▁বিচার": 9932,
  "▁বিচারক": 9933,
  "▁বিচারপতি": 9934,
  "▁বিচারের": 9935,
  "▁বিচ্ছিন্ন": 9936,
  "▁বিজ": 9937,
  "▁বিজন": 9938,
  "▁বিজনেস": 9939,
  "▁বিজয়": 9940,
  "▁বিজয়ী": 9941,
  "▁বিজয়ের": 9942,
  "▁বিজ্ঞ": 9943,
  "▁বিজ্ঞান": 9944,
  "▁বিজ্ঞানী": 9945,
  "▁বিজ্ঞানের": 9946,
  "▁বিজ্ঞাপন": 9947,
  "▁বিট": 9948,
  "▁বিড়": 9949,
  "▁বিত": 9950,
  "▁বিতরণ": 9951,
  "▁বিতর্ক": 9952,
  "▁বিতর্কিত": 9953,
  "▁বিদ": 9954,
  "▁বিদেশ": 9955,
  "▁বিদেশি": 9956,
  "▁বিদেশী": 9957,
  "▁বিদেশে": 9958,
  "▁বিদ্যমান": 9959,
  "▁বিদ্যমান।": 9960,
  "▁বিদ্যা": 9961,
  "▁বিদ্যাল": 9962,
  "▁বিদ্যালয়": 9963,
  "▁বিদ্যালয়,": 9964,
  "▁বিদ্যালয়।": 9965,
  "▁বিদ্যালয়টি": 9966,
  "▁বিদ্যালয়ে": 9967,
  "▁বিদ্যালয়ের": 9968,
  "▁বিদ্যু": 9969,
  "▁বিদ্যুৎ": 9970,
  "▁বিদ্র": 9971,
  "▁বিদ্রোহ": 9972,
  "▁বিদ্রোহী": 9973,
  "▁বিদ্রোহের": 9974,
  "▁বিধ": 9975,
  "▁বিধান": 9976,
  "▁বিধানসভা": 9977,
  "▁বিধানসভাতে": 9978,
  "▁বিধানসভার": 9979,
  "▁বিধায়ক": 9980,
  "▁বিন": 9981,
  "▁বিনামূল": 9982,
  "▁বিনামূল্যে": 9983,
  "▁বিনি": 9984,
  "▁বিনিম": 9985,
  "▁বিনিময়": 9986,
  "▁বিনিময়ে": 9987,
  "▁বিনিয়োগ": 9988,
  "▁বিনোদ": 9989,
  "▁বিনোদন": 9990,
  "▁বিন্দ": 9991,
  "▁বিন্দু": 9992,
  "▁বিন্যাস": 9993,
  "▁বিপ": 9994,
  "▁বিপক্ষে": 9995,
  "▁বিপণ": 9996,
  "▁বিপদ": 9997,
  "▁বিপর": 9998,
  "▁বিপরীত": 9999,
  "▁বিপরীতে": 10000,
  "▁বিপর্য": 10001,
  "▁বিপুল": 10002,
  "▁বিপ্ল": 10003,
  "▁বিপ্লব": 10004,
  "▁বিপ্লবী": 10005,
  "▁বিপ্লবের": 10006,
  "▁বিব": 10007,
  "▁বিবরণ": 10008,
  "▁বিবর্ত": 10009,
  "▁বিবর্তন": 10010,
  "▁বিবাহ": 10011,
  "▁বিবাহের": 10012,
  "▁বিবি": 10013,
  "▁বিবিসি": 10014,
  "▁বিবৃতি": 10015,
  "▁বিবে": 10016,
  "▁বিবেকান": 10017,
  "▁বিবেচ": 10018,
  "▁বিবেচনা": 10019,
  "▁বিবেচিত": 10020,
  "▁বিভ": 10021,
  "▁বিভক্ত": 10022,
  "▁বিভক্ত।": 10023,
  "▁বিভাগ": 10024,
  "▁বিভাগ,": 10025,
  "▁বিভাগীয়": 10026,
  "▁বিভাগে": 10027,
  "▁বিভাগের": 10028,
  "▁বিভাজন": 10029,
  "▁বিভিন্ন": 10030,
  "▁বিভ্রান্ত": 10031,
  "▁বিম": 10032,
  "▁বিমান": 10033,
  "▁বিমানব": 10034,
  "▁বিমানবন্দ": 10035,
  "▁বিমানবন্দর": 10036,
  "▁বিমানের": 10037,
  "▁বিয়": 10038,
  "▁বিয়ে": 10039,
  "▁বিয়ের": 10040,
  "▁বির": 10041,
  "▁বিরত": 10042,
  "▁বিরল": 10043,
  "▁বিরাট": 10044,
  "▁বিরুদ্ধে": 10045,
  "▁বিরোধ": 10046,
  "▁বিরোধিতা": 10047,
  "▁বিরোধী": 10048,
  "▁বিল": 10049,
  "▁বিলম্ব": 10050,
  "▁বিলিয়ন": 10051,
  "▁বিলুপ্ত": 10052,
  "▁বিল্ডিং": 10053,
  "▁বিশ": 10054,
  "▁বিশাল": 10055,
  "▁বিশিষ্ট": 10056,
  "▁বিশুদ্ধ": 10057,
  "▁বিশেষ": 10058,
  "▁বিশেষজ্ঞ": 10059,
  "▁বিশেষত": 10060,
  "▁বিশেষভাবে": 10061,
  "▁বিশ্ব": 10062,
  "▁বিশ্বকাপ": 10063,
  "▁বিশ্বকাপে": 10064,
  "▁বিশ্বকাপের": 10065,
  "▁বিশ্ববিদ": 10066,
  "▁বিশ্ববিদ্যাল": 10067,
  "▁বিশ্ববিদ্যালয়": 10068,
  "▁বিশ্ববিদ্যালয়,": 10069,
  "▁বিশ্ববিদ্যালয়।": 10070,
  "▁বিশ্ববিদ্যালয়ে": 10071,
  "▁বিশ্ববিদ্যালয়ের": 10072,
  "▁বিশ্বব্যাপী": 10073,
  "▁বিশ্বযুদ্ধ": 10074,
  "▁বিশ্বযুদ্ধের": 10075,
  "▁বিশ্বাস": 10076,
  "▁বিশ্বাসের": 10077,
  "▁বিশ্বে": 10078,
  "▁বিশ্বের": 10079,
  "▁বিশ্লেষণ": 10080,
  "▁বিষ": 10081,
  "▁বিষয়": 10082,
  "▁বিষয়ক": 10083,
  "▁বিষয়টি": 10084,
  "▁বিষয়বস্তু": 10085,
  "▁বিষয়ে": 10086,
  "▁বিষয়ের": 10087,
  "▁বিষাক্ত": 10088,
  "▁বিষ্ণ": 10089,
  "▁বিষ্ণু": 10090,
  "▁বিষ্ণুর": 10091,
  "▁বিস্": 10092,
  "▁বিস্ত": 10093,
  "▁বিস্তার": 10094,
  "▁বিস্তারিত": 10095,
  "▁বিস্তৃত": 10096,
  "▁বিস্তৃত।": 10097,
  "▁বিস্তৃতি": 10098,
  "▁বিস্ফোর": 10099,
  "▁বিস্ফোরণ": 10100,
  "▁বিহার": 10101,
  "▁বিহারের": 10102,
  "▁বী": 10103,
  "▁বীজ": 10104,
  "▁বীর": 10105,
  "▁বু": 10106,
  "▁বুক": 10107,
  "▁বুঝ": 10108,
  "▁বুঝতে": 10109,
  "▁বুদ্ধ": 10110,
  "▁বুদ্ধিজীব": 10111,
  "▁বুদ্ধের": 10112,
  "▁বুন": 10113,
  "▁বুন্দ": 10114,
  "▁বুন্দেস": 10115,
  "▁বুন্দেসলিগ": 10116,
  "▁বুর": 10117,
  "▁বুল": 10118,
  "▁বৃ": 10119,
  "▁বৃক্ষ": 10120,
  "▁বৃত্ত": 10121,
  "▁বৃত্তি": 10122,
  "▁বৃদ্ধ": 10123,
  "▁বৃদ্ধি": 10124,
  "▁বৃদ্ধির": 10125,
  "▁বৃষ্টি": 10126,
  "▁বৃষ্টিপাত": 10127,
  "▁বৃহ": 10128,
  "▁বৃহত্ত": 10129,
  "▁বৃহত্তম": 10130,
  "▁বৃহত্তর": 10131,
  "▁বৃহৎ": 10132,
  "▁বে": 10133,
  "▁বেঁ": 10134,
  "▁বেঁচে": 10135,
  "▁বেই": 10136,
  "▁বেক": 10137,
  "▁বেকার": 10138,
  "▁বেগ": 10139,
  "▁বেগম": 10140,
  "▁বেঙ্গল": 10141,
  "▁বেঙ্গাল": 10142,
  "▁বেছে": 10143,
  "▁বেড়": 10144,
  "▁বেড়ে": 10145,
  "▁বেত": 10146,
  "▁বেতন": 10147,
  "▁বেতার": 10148,
  "▁বেদ": 10149,
  "▁বেদান্ত": 10150,
  "▁বেন": 10151,
  "▁বের": 10152,
  "▁বেরিয়ে": 10153,
  "▁বেল": 10154,
  "▁বেলজ": 10155,
  "▁বেশ": 10156,
  "▁বেশি": 10157,
  "▁বেশি।": 10158,
  "▁বেশির": 10159,
  "▁বেশিরভাগ": 10160,
  "▁বেশিরভাগই": 10161,
  "▁বেষ্ট": 10162,
  "▁বেস": 10163,
  "▁বেসর": 10164,
  "▁বেসরকারি": 10165,
  "▁বেসরকারী": 10166,
  "▁বেসামরিক": 10167,
  "▁বেহ": 10168,
  "▁বৈ": 10169,
  "▁বৈচিত্র": 10170,
  "▁বৈচিত্র্য": 10171,
  "▁বৈজ্ঞানিক": 10172,
  "▁বৈঠ": 10173,
  "▁বৈদ": 10174,
  "▁বৈদিক": 10175,
  "▁বৈদেশিক": 10176,
  "▁বৈদ্যুতিক": 10177,
  "▁বৈধ": 10178,
  "▁বৈশিষ্ট": 10179,
  "▁বৈশিষ্ট্য": 10180,
  "▁বৈশ্বিক": 10181,
  "▁বৈষম": 10182,
  "▁বৈষম্য": 10183,
  "▁বৈষ্ণ": 10184,
  "▁বৈষ্ণব": 10185,
  "▁বো": 10186,
  "▁বোঝ": 10187,
  "▁বোঝা": 10188,
  "▁বোঝাতে": 10189,
  "▁বোঝানো": 10190,
  "▁বোঝায়": 10191,
  "▁বোঝায়।": 10192,
  "▁বোধ": 10193,
  "▁বোন": 10194,
  "▁বোম": 10195,
  "▁বোমা": 10196,
  "▁বোম্বে": 10197,
  "▁বোয়": 10198,
  "▁বোর": 10199,
  "▁বোর্ড": 10200,
  "▁বোর্ডের": 10201,
  "▁বোল": 10202,
  "▁বোলার": 10203,
  "▁বোলিং": 10204,
  "▁বোলিংয়ে": 10205,
  "▁বোস": 10206,
  "▁বৌ": 10207,
  "▁বৌদ্ধ": 10208,
  "▁বৌদ্ধধর্ম": 10209,
  "▁বৌদ্ধধর্মের": 10210,
  "▁বৌদ্ধবিহার": 10211,
  "▁ব্য": 10212,
  "▁ব্যক্ত": 10213,
  "▁ব্যক্তি": 10214,
  "▁ব্যক্তি)": 10215,
  "▁ব্যক্তিকে": 10216,
  "▁ব্যক্তিগত": 10217,
  "▁ব্যক্তিত্ব": 10218,
  "▁ব্যক্তিদের": 10219,
  "▁ব্যক্তিবর্গ": 10220,
  "▁ব্যক্তির": 10221,
  "▁ব্যতিক্রম": 10222,
  "▁ব্যতীত": 10223,
  "▁ব্যব": 10224,
  "▁ব্যবধানে": 10225,
  "▁ব্যবস": 10226,
  "▁ব্যবসা": 10227,
  "▁ব্যবসায়": 10228,
  "▁ব্যবসায়িক": 10229,
  "▁ব্যবসায়ী": 10230,
  "▁ব্যবস্থ": 10231,
  "▁ব্যবস্থা": 10232,
  "▁ব্যবস্থাপ": 10233,
  "▁ব্যবস্থাপনা": 10234,
  "▁ব্যবস্থায়": 10235,
  "▁ব্যবস্থার": 10236,
  "▁ব্যবহ": 10237,
  "▁ব্যবহার": 10238,
  "▁ব্যবহারকারী": 10239,
  "▁ব্যবহারিক": 10240,
  "▁ব্যবহারের": 10241,
  "▁ব্যবহৃত": 10242,
  "▁ব্যয়": 10243,
  "▁ব্যর্থ": 10244,
  "▁ব্যস্ত": 10245,
  "▁ব্যা": 10246,
  "▁ব্যাং": 10247,
  "▁ব্যাংক": 10248,
  "▁ব্যাংকিং": 10249,
  "▁ব্যাংকের": 10250,
  "▁ব্যাক": 10251,
  "▁ব্যাকটের": 10252,
  "▁ব্যাকরণ": 10253,
  "▁ব্যাখ্যা": 10254,
  "▁ব্যাঙ্ক": 10255,
  "▁ব্যাচেল": 10256,
  "▁ব্যাট": 10257,
  "▁ব্যাটসম্যান": 10258,
  "▁ব্যাটারি": 10259,
  "▁ব্যাটাল": 10260,
  "▁ব্যাটিং": 10261,
  "▁ব্যাটিংয়ে": 10262,
  "▁ব্যান": 10263,
  "▁ব্যান্ড": 10264,
  "▁ব্যাপ": 10265,
  "▁ব্যাপক": 10266,
  "▁ব্যাপকভাবে": 10267,
  "▁ব্যাপার": 10268,
  "▁ব্যাপারে": 10269,
  "▁ব্যাব": 10270,
  "▁ব্যার": 10271,
  "▁ব্যাল": 10272,
  "▁ব্যাস": 10273,
  "▁ব্যুৎপ": 10274,
  "▁ব্যুৎপত্তি": 10275,
  "▁ব্র": 10276,
  "▁ব্রড": 10277,
  "▁ব্রহ্ম": 10278,
  "▁ব্রাউ": 10279,
  "▁ব্রাউন": 10280,
  "▁ব্রাজ": 10281,
  "▁ব্রাজিল": 10282,
  "▁ব্রাজিলীয়": 10283,
  "▁ব্রাজিলের": 10284,
  "▁ব্রায়ান": 10285,
  "▁ব্রাহ্ম": 10286,
  "▁ব্রাহ্মণ": 10287,
  "▁ব্রাহ্মণবাড়িয়া": 10288,
  "▁ব্রিগ": 10289,
  "▁ব্রিগেড": 10290,
  "▁ব্রিজ": 10291,
  "▁ব্রিট": 10292,
  "▁ব্রিটিশ": 10293,
  "▁ব্রিটিশদের": 10294,
  "▁ব্রিটিশরা": 10295,
  "▁ব্রিটেন": 10296,
  "▁ব্রুন": 10297,
  "▁ব্রেক": 10298,
  "▁ব্রো": 10299,
  "▁ব্রোঞ্জ": 10300,
  "▁ব্র্যান্ড": 10301,
  "▁ব্ল": 10302,
  "▁ব্লক": 10303,
  "▁ব্লকের": 10304,
  "▁ব্লু": 10305,
  "▁ব্লে": 10306,
  "▁ব্ল্যাক": 10307,
  "▁বৎ": 10308,
  "▁বৎসর": 10309,
  "▁ভ": 10310,
  "▁ভক্ত": 10311,
  "▁ভক্তি": 10312,
  "▁ভগ": 10313,
  "▁ভগবান": 10314,
  "▁ভঙ্গ": 10315,
  "▁ভট্ট": 10316,
  "▁ভট্টাচার্য": 10317,
  "▁ভব": 10318,
  "▁ভবন": 10319,
  "▁ভবনটি": 10320,
  "▁ভবনে": 10321,
  "▁ভবনের": 10322,
  "▁ভবিষ্য": 10323,
  "▁ভবিষ্যৎ": 10324,
  "▁ভয়": 10325,
  "▁ভর": 10326,
  "▁ভর্ত": 10327,
  "▁ভর্তি": 10328,
  "▁ভল": 10329,
  "▁ভাঁ": 10330,
  "▁ভাই": 10331,
  "▁ভাইয়ের": 10332,
  "▁ভাইর": 10333,
  "▁ভাইরাস": 10334,
  "▁ভাইস": 10335,
  "▁ভাগ": 10336,
  "▁ভাগে": 10337,
  "▁ভাঙ": 10338,
  "▁ভাট": 10339,
  "▁ভাড়া": 10340,
  "▁ভাত": 10341,
  "▁ভাব": 10342,
  "▁ভাবে": 10343,
  "▁ভার": 10344,
  "▁ভারত": 10345,
  "▁ভারত,": 10346,
  "▁ভারতবর্ষ": 10347,
  "▁ভারতীয়": 10348,
  "▁ভারতে": 10349,
  "▁ভারতের": 10350,
  "▁ভারসাম": 10351,
  "▁ভারসাম্য": 10352,
  "▁ভারী": 10353,
  "▁ভার্জ": 10354,
  "▁ভার্জিন": 10355,
  "▁ভাল": 10356,
  "▁ভালবাস": 10357,
  "▁ভালো": 10358,
  "▁ভালোব": 10359,
  "▁ভালোবাস": 10360,
  "▁ভাষ": 10361,
  "▁ভাষা": 10362,
  "▁ভাষা,": 10363,
  "▁ভাষা।": 10364,
  "▁ভাষায়": 10365,
  "▁ভাষার": 10366,
  "▁ভাষাসমূহ": 10367,
  "▁ভাষ্য": 10368,
  "▁ভাস": 10369,
  "▁ভাস্": 10370,
  "▁ভাস্কর": 10371,
  "▁ভাস্কর্য": 10372,
  "▁ভি": 10373,
  "▁ভিক": 10374,
  "▁ভিক্টোর": 10375,
  "▁ভিক্টোরিয়া": 10376,
  "▁ভিক্টোরিয়ার": 10377,
  "▁ভিক্ষ": 10378,
  "▁ভিজ": 10379,
  "▁ভিট": 10380,
  "▁ভিডিও": 10381,
  "▁ভিত": 10382,
  "▁ভিতরে": 10383,
  "▁ভিত্ত": 10384,
  "▁ভিত্তি": 10385,
  "▁ভিত্তিক": 10386,
  "▁ভিত্তিতে": 10387,
  "▁ভিন": 10388,
  "▁ভিন্ন": 10389,
  "▁ভিয়েত": 10390,
  "▁ভিয়েতনাম": 10391,
  "▁ভিয়েতনামের": 10392,
  "▁ভিল": 10393,
  "▁ভী": 10394,
  "▁ভুট": 10395,
  "▁ভুল": 10396,
  "▁ভূ": 10397,
  "▁ভূখণ্ড": 10398,
  "▁ভূগর্ভ": 10399,
  "▁ভূগর্ভস্থ": 10400,
  "▁ভূগোল": 10401,
  "▁ভূপ": 10402,
  "▁ভূম": 10403,
  "▁ভূমধ্য": 10404,
  "▁ভূমি": 10405,
  "▁ভূমিক": 10406,
  "▁ভূমিকম্প": 10407,
  "▁ভূমিকা": 10408,
  "▁ভূমিকায়": 10409,
  "▁ভূমির": 10410,
  "▁ভূষিত": 10411,
  "▁ভে": 10412,
  "▁ভেঙে": 10413,
  "▁ভেঙ্গে": 10414,
  "▁ভেত": 10415,
  "▁ভেতর": 10416,
  "▁ভেতরে": 10417,
  "▁ভেন": 10418,
  "▁ভের": 10419,
  "▁ভেল": 10420,
  "▁ভোগ": 10421,
  "▁ভোজ": 10422,
  "▁ভোট": 10423,
  "▁ভোটার": 10424,
  "▁ভোল": 10425,
  "▁ভোল্ট": 10426,
  "▁ভৌ": 10427,
  "▁ভৌগোল": 10428,
  "▁ভৌগোলিক": 10429,
  "▁ভৌত": 10430,
  "▁ভ্যান": 10431,
  "▁ভ্যাল": 10432,
  "▁ভ্র": 10433,
  "▁ভ্রম": 10434,
  "▁ভ্রমণ": 10435,
  "▁ভ্রমণের": 10436,
  "▁ম": 10437,
  "▁মক": 10438,
  "▁মক্ক": 10439,
  "▁মক্কা": 10440,
  "▁মঙ্গ": 10441,
  "▁মঙ্গল": 10442,
  "▁মঙ্গোল": 10443,
  "▁মজ": 10444,
  "▁মজুম": 10445,
  "▁মজুমদার": 10446,
  "▁মঞ্চ": 10447,
  "▁মঞ্চে": 10448,
  "▁মঞ্জ": 10449,
  "▁মঠ": 10450,
  "▁মড": 10451,
  "▁মডেল": 10452,
  "▁মণ": 10453,
  "▁মণিপুর": 10454,
  "▁মণ্ড": 10455,
  "▁মত": 10456,
  "▁মতবাদ": 10457,
  "▁মতামত": 10458,
  "▁মতে": 10459,
  "▁মতে,": 10460,
  "▁মতো": 10461,
  "▁মতোই": 10462,
  "▁মদ": 10463,
  "▁মদিন": 10464,
  "▁মধ": 10465,
  "▁মধু": 10466,
  "▁মধ্য": 10467,
  "▁মধ্যকার": 10468,
  "▁মধ্যপ্রদেশ": 10469,
  "▁মধ্যপ্রদেশের": 10470,
  "▁মধ্যপ্রাচ": 10471,
  "▁মধ্যবর্তী": 10472,
  "▁মধ্যমা": 10473,
  "▁মধ্যমাঠের": 10474,
  "▁মধ্যযুগ": 10475,
  "▁মধ্যযুগীয়": 10476,
  "▁মধ্যে": 10477,
  "▁মধ্যে,": 10478,
  "▁মধ্যেই": 10479,
  "▁মন": 10480,
  "▁মনে": 10481,
  "▁মনের": 10482,
  "▁মনো": 10483,
  "▁মনোন": 10484,
  "▁মনোনয়ন": 10485,
  "▁মনোনিবেশ": 10486,
  "▁মনোনীত": 10487,
  "▁মনোভাব": 10488,
  "▁মনোযোগ": 10489,
  "▁মনোর": 10490,
  "▁মন্ট": 10491,
  "▁মন্ড": 10492,
  "▁মন্তব্য": 10493,
  "▁মন্ত্র": 10494,
  "▁মন্ত্রণ": 10495,
  "▁মন্ত্রণালয়": 10496,
  "▁মন্ত্রণালয়ের": 10497,
  "▁মন্ত্রিস": 10498,
  "▁মন্ত্রী": 10499,
  "▁মন্দির": 10500,
  "▁মন্দির,": 10501,
  "▁মন্দিরটি": 10502,
  "▁মন্দিরে": 10503,
  "▁মন্দিরের": 10504,
  "▁ময়": 10505,
  "▁ময়মন": 10506,
  "▁ময়মনসিংহ": 10507,
  "▁মর": 10508,
  "▁মরু": 10509,
  "▁মর্য": 10510,
  "▁মর্যাদ": 10511,
  "▁মর্যাদা": 10512,
  "▁মল": 10513,
  "▁মল্ল": 10514,
  "▁মল্লক্র": 10515,
  "▁মল্লক্রীড়": 10516,
  "▁মল্লক্রীড়াবিদ": 10517,
  "▁মশ": 10518,
  "▁মস": 10519,
  "▁মসজিদ": 10520,
  "▁মসজিদ,": 10521,
  "▁মসজিদ।": 10522,
  "▁মসজিদটি": 10523,
  "▁মসজিদে": 10524,
  "▁মসজিদের": 10525,
  "▁মস্তি": 10526,
  "▁মস্তিষ্": 10527,
  "▁মস্তিষ্কের": 10528,
  "▁মহ": 10529,
  "▁মহকুম": 10530,
  "▁মহকুমা": 10531,
  "▁মহকুমার": 10532,
  "▁মহাক": 10533,
  "▁মহাকর্ষ": 10534,
  "▁মহাকাব্য": 10535,
  "▁মহাকাশ": 10536,
  "▁মহাজ": 10537,
  "▁মহাদেশ": 10538,
  "▁মহান": 10539,
  "▁মহানগর": 10540,
  "▁মহাপ": 10541,
  "▁মহাব": 10542,
  "▁মহাবিদ": 10543,
  "▁মহাবিদ্যালয়": 10544,
  "▁মহাবিশ": 10545,
  "▁মহাবিশ্বের": 10546,
  "▁মহাভার": 10547,
  "▁মহাম": 10548,
  "▁মহামারী": 10549,
  "▁মহামারীর": 10550,
  "▁মহার": 10551,
  "▁মহারা": 10552,
  "▁মহারাজা": 10553,
  "▁মহারাষ্ট্র": 10554,
  "▁মহারাষ্ট্রের": 10555,
  "▁মহাস": 10556,
  "▁মহাসড়": 10557,
  "▁মহাসড়ক": 10558,
  "▁মহাসাগর": 10559,
  "▁মহাসাগরীয়": 10560,
  "▁মহাসাগরের": 10561,
  "▁মহিল": 10562,
  "▁মহিলা": 10563,
  "▁মহিলাদের": 10564,
  "▁মহিলার": 10565,
  "▁মহিলারা": 10566,
  "▁মা": 10567,
  "▁মাংস": 10568,
  "▁মাই": 10569,
  "▁মাইকেল": 10570,
  "▁মাইক্র": 10571,
  "▁মাইক্রো": 10572,
  "▁মাইক্রোসফ": 10573,
  "▁মাইন": 10574,
  "▁মাইল": 10575,
  "▁মাইল)": 10576,
  "▁মাউ": 10577,
  "▁মাউন্ট": 10578,
  "▁মাও": 10579,
  "▁মাওলানা": 10580,
  "▁মাক": 10581,
  "▁মাগ": 10582,
  "▁মাছ": 10583,
  "▁মাছের": 10584,
  "▁মাজ": 10585,
  "▁মাজার": 10586,
  "▁মাঝ": 10587,
  "▁মাঝামা": 10588,
  "▁মাঝামাঝি": 10589,
  "▁মাঝারি": 10590,
  "▁মাঝে": 10591,
  "▁মাঝেম": 10592,
  "▁মাঝেমধ্যে": 10593,
  "▁মাটি": 10594,
  "▁মাটিতে": 10595,
  "▁মাটির": 10596,
  "▁মাঠ": 10597,
  "▁মাঠে": 10598,
  "▁মাঠের": 10599,
  "▁মাত": 10600,
  "▁মাতা": 10601,
  "▁মাতার": 10602,
  "▁মাতৃ": 10603,
  "▁মাত্র": 10604,
  "▁মাত্রা": 10605,
  "▁মাত্রার": 10606,
  "▁মাথ": 10607,
  "▁মাথা": 10608,
  "▁মাথায়": 10609,
  "▁মাথার": 10610,
  "▁মাদ": 10611,
  "▁মাদরাস": 10612,
  "▁মাদ্র": 10613,
  "▁মাদ্রাজ": 10614,
  "▁মাদ্রাস": 10615,
  "▁মাদ্রাসা": 10616,
  "▁মাদ্রাসা,": 10617,
  "▁মাদ্রাসার": 10618,
  "▁মাদ্রিদ": 10619,
  "▁মাধ": 10620,
  "▁মাধব": 10621,
  "▁মাধ্য": 10622,
  "▁মাধ্যম": 10623,
  "▁মাধ্যমিক": 10624,
  "▁মাধ্যমে": 10625,
  "▁মাধ্যমে।": 10626,
  "▁মান": 10627,
  "▁মানচিত্র": 10628,
  "▁মানদণ্ড": 10629,
  "▁মানব": 10630,
  "▁মানবাধিকার": 10631,
  "▁মানবিক": 10632,
  "▁মানসিক": 10633,
  "▁মানিক": 10634,
  "▁মানুষ": 10635,
  "▁মানুষকে": 10636,
  "▁মানুষের": 10637,
  "▁মানে": 10638,
  "▁মানের": 10639,
  "▁মাপ": 10640,
  "▁মাম": 10641,
  "▁মামলা": 10642,
  "▁মামলার": 10643,
  "▁মামলুক": 10644,
  "▁মায়": 10645,
  "▁মায়ান": 10646,
  "▁মায়ের": 10647,
  "▁মার": 10648,
  "▁মারা": 10649,
  "▁মারাঠি": 10650,
  "▁মারাত্মক": 10651,
  "▁মারাদ": 10652,
  "▁মারিয়া": 10653,
  "▁মার্": 10654,
  "▁মার্ক": 10655,
  "▁মার্কিন": 10656,
  "▁মার্চ": 10657,
  "▁মার্চ,": 10658,
  "▁মার্টিন": 10659,
  "▁মার্ভেল": 10660,
  "▁মার্শাল": 10661,
  "▁মাল": 10662,
  "▁মালয়": 10663,
  "▁মালয়াল": 10664,
  "▁মালয়ালম": 10665,
  "▁মালয়েশ": 10666,
  "▁মালয়েশিয়ার": 10667,
  "▁মালিক": 10668,
  "▁মালিকান": 10669,
  "▁মালিকানাধীন": 10670,
  "▁মাল্টি": 10671,
  "▁মাস": 10672,
  "▁মাসিক": 10673,
  "▁মাসুদ": 10674,
  "▁মাসে": 10675,
  "▁মাসে,": 10676,
  "▁মাসের": 10677,
  "▁মাস্ট": 10678,
  "▁মাস্টার": 10679,
  "▁মাস্টার্স": 10680,
  "▁মাহ": 10681,
  "▁মাহম": 10682,
  "▁মাহমুদ": 10683,
  "▁মি": 10684,
  "▁মিউ": 10685,
  "▁মিউজ": 10686,
  "▁মিউজিক": 10687,
  "▁মিউনিখ": 10688,
  "▁মিক": 10689,
  "▁মিছিল": 10690,
  "▁মিজ": 10691,
  "▁মিটার": 10692,
  "▁মিড": 10693,
  "▁মিডিয়া": 10694,
  "▁মিডিয়াম": 10695,
  "▁মিত্র": 10696,
  "▁মিথ": 10697,
  "▁মিথ্যা": 10698,
  "▁মিন": 10699,
  "▁মিনার": 10700,
  "▁মিনি": 10701,
  "▁মিনিট": 10702,
  "▁মিনিটে": 10703,
  "▁মিমি": 10704,
  "▁মিয়া": 10705,
  "▁মিয়ান": 10706,
  "▁মিয়ানমারের": 10707,
  "▁মির": 10708,
  "▁মির্জ": 10709,
  "▁মিল": 10710,
  "▁মিলন": 10711,
  "▁মিলিত": 10712,
  "▁মিলিয়ন": 10713,
  "▁মিলিয়ে": 10714,
  "▁মিলে": 10715,
  "▁মিশ": 10716,
  "▁মিশন": 10717,
  "▁মিশর": 10718,
  "▁মিশরীয়": 10719,
  "▁মিশরে": 10720,
  "▁মিশরের": 10721,
  "▁মিশ্র": 10722,
  "▁মিশ্রণ": 10723,
  "▁মিষ্টি": 10724,
  "▁মিস": 10725,
  "▁মিহ": 10726,
  "▁মীর": 10727,
  "▁মু": 10728,
  "▁মুক": 10729,
  "▁মুক্ত": 10730,
  "▁মুক্তি": 10731,
  "▁মুক্তিপ্রাপ্ত": 10732,
  "▁মুক্তিবাহ": 10733,
  "▁মুক্তিয": 10734,
  "▁মুক্তিযুদ্ধ": 10735,
  "▁মুক্তিযুদ্ধে": 10736,
  "▁মুক্তিযুদ্ধের": 10737,
  "▁মুক্তিযোদ্ধ": 10738,
  "▁মুক্তিযোদ্ধা": 10739,
  "▁মুক্তিযোদ্ধাদের": 10740,
  "▁মুক্তিযোদ্ধারা": 10741,
  "▁মুক্তির": 10742,
  "▁মুখ": 10743,
  "▁মুখে": 10744,
  "▁মুখের": 10745,
  "▁মুখোপাধ্যায়": 10746,
  "▁মুখোমুখ": 10747,
  "▁মুখোমুখি": 10748,
  "▁মুখ্য": 10749,
  "▁মুখ্যমন্ত্রী": 10750,
  "▁মুঘল": 10751,
  "▁মুজ": 10752,
  "▁মুজিব": 10753,
  "▁মুজিবুর": 10754,
  "▁মুদ্র": 10755,
  "▁মুদ্রা": 10756,
  "▁মুন": 10757,
  "▁মুন্স": 10758,
  "▁মুফ": 10759,
  "▁মুম্ব": 10760,
  "▁মুম্বই": 10761,
  "▁মুম্বইয়ের": 10762,
  "▁মুম্বাই": 10763,
  "▁মুর": 10764,
  "▁মুর্শিদ": 10765,
  "▁মুর্শিদাবাদ": 10766,
  "▁মুল": 10767,
  "▁মুস": 10768,
  "▁মুসল": 10769,
  "▁মুসলমান": 10770,
  "▁মুসলমানদের": 10771,
  "▁মুসলিম": 10772,
  "▁মুসলিমদের": 10773,
  "▁মুস্ত": 10774,
  "▁মুহ": 10775,
  "▁মুহম্মদ": 10776,
  "▁মুহাম্ম": 10777,
  "▁মুহাম্মদ": 10778,
  "▁মুহাম্মদের": 10779,
  "▁মুহাম্মাদ": 10780,
  "▁মুহাম্মাদের": 10781,
  "▁মুহূর্ত": 10782,
  "▁মূ": 10783,
  "▁মূর্ত": 10784,
  "▁মূর্তি": 10785,
  "▁মূল": 10786,
  "▁মূলত": 10787,
  "▁মূলতঃ": 10788,
  "▁মূল্য": 10789,
  "▁মূল্যবান": 10790,
  "▁মূল্যায়ন": 10791,
  "▁মৃ": 10792,
  "▁মৃত": 10793,
  "▁মৃত্যু": 10794,
  "▁মৃত্যু:": 10795,
  "▁মৃত্যুদণ্ড": 10796,
  "▁মৃত্যুবরণ": 10797,
  "▁মৃত্যুর": 10798,
  "▁মে": 10799,
  "▁মে,": 10800,
  "▁মেই": 10801,
  "▁মেইন": 10802,
  "▁মেক": 10803,
  "▁মেক্স": 10804,
  "▁মেক্সিক": 10805,
  "▁মেক্সিকো": 10806,
  "▁মেগা": 10807,
  "▁মেঘ": 10808,
  "▁মেজ": 10809,
  "▁মেজর": 10810,
  "▁মেট": 10811,
  "▁মেট্র": 10812,
  "▁মেট্রো": 10813,
  "▁মেট্রোপল": 10814,
  "▁মেট্রোপলিটন": 10815,
  "▁মেড": 10816,
  "▁মেডিক": 10817,
  "▁মেডিকেল": 10818,
  "▁মেডিক্যাল": 10819,
  "▁মেডিস": 10820,
  "▁মেডেল": 10821,
  "▁মেদ": 10822,
  "▁মেদিনী": 10823,
  "▁মেন": 10824,
  "▁মেনে": 10825,
  "▁মেম": 10826,
  "▁মেমোরিয়াল": 10827,
  "▁মেয়": 10828,
  "▁মেয়র": 10829,
  "▁মেয়াদ": 10830,
  "▁মেয়াদে": 10831,
  "▁মেয়ে": 10832,
  "▁মেয়েদের": 10833,
  "▁মেয়ের": 10834,
  "▁মের": 10835,
  "▁মেরি": 10836,
  "▁মেরিল": 10837,
  "▁মেরু": 10838,
  "▁মেরে": 10839,
  "▁মেল": 10840,
  "▁মেলব": 10841,
  "▁মেলা": 10842,
  "▁মেশ": 10843,
  "▁মেশিন": 10844,
  "▁মেস": 10845,
  "▁মেহ": 10846,
  "▁মৈ": 10847,
  "▁মৈত্র": 10848,
  "▁মো": 10849,
  "▁মো.": 10850,
  "▁মোঃ": 10851,
  "▁মোক": 10852,
  "▁মোকাব": 10853,
  "▁মোগ": 10854,
  "▁মোজ": 10855,
  "▁মোট": 10856,
  "▁মোটর": 10857,
  "▁মোটামুটি": 10858,
  "▁মোড়": 10859,
  "▁মোত": 10860,
  "▁মোন": 10861,
  "▁মোবাইল": 10862,
  "▁মোর": 10863,
  "▁মোল": 10864,
  "▁মোস্ত": 10865,
  "▁মোস্তফা": 10866,
  "▁মোহ": 10867,
  "▁মোহন": 10868,
  "▁মোহাম্মদ": 10869,
  "▁মৌ": 10870,
  "▁মৌল": 10871,
  "▁মৌলভ": 10872,
  "▁মৌলিক": 10873,
  "▁মৌসুম": 10874,
  "▁মৌসুমে": 10875,
  "▁মৌসুমে,": 10876,
  "▁মৌসুমের": 10877,
  "▁ম্যা": 10878,
  "▁ম্যাক": 10879,
  "▁ম্যাক্স": 10880,
  "▁ম্যাগ": 10881,
  "▁ম্যাগাজ": 10882,
  "▁ম্যাগাজিন": 10883,
  "▁ম্যাচ": 10884,
  "▁ম্যাচটি": 10885,
  "▁ম্যাচে": 10886,
  "▁ম্যাচের": 10887,
  "▁ম্যাজ": 10888,
  "▁ম্যাজিস্ট": 10889,
  "▁ম্যাজিস্ট্রেট": 10890,
  "▁ম্যাট্রিক": 10891,
  "▁ম্যাড": 10892,
  "▁ম্যাথ": 10893,
  "▁ম্যান": 10894,
  "▁ম্যানচেস্টার": 10895,
  "▁ম্যানেজ": 10896,
  "▁ম্যানেজমেন্ট": 10897,
  "▁ম্যানেজার": 10898,
  "▁ম্যাল": 10899,
  "▁ম্যাস": 10900,
  "▁ম্যাসাচুস": 10901,
  "▁মৎস্য": 10902,
  "▁য": 10903,
  "▁যখন": 10904,
  "▁যত": 10905,
  "▁যত্ন": 10906,
  "▁যথ": 10907,
  "▁যথা": 10908,
  "▁যথাক্রমে": 10909,
  "▁যথাযথ": 10910,
  "▁যথে": 10911,
  "▁যথেষ্ট": 10912,
  "▁যদ": 10913,
  "▁যদি": 10914,
  "▁যদিও": 10915,
  "▁যন্ত্র": 10916,
  "▁যন্ত্রপাত": 10917,
  "▁যন্ত্রের": 10918,
  "▁যম": 10919,
  "▁যশ": 10920,
  "▁যশোর": 10921,
  "▁যা": 10922,
  "▁যাঁ": 10923,
  "▁যাইহ": 10924,
  "▁যাইহোক,": 10925,
  "▁যাওয়া": 10926,
  "▁যাওয়ার": 10927,
  "▁যাকে": 10928,
  "▁যাচ": 10929,
  "▁যাচ্": 10930,
  "▁যাতায়": 10931,
  "▁যাতে": 10932,
  "▁যাত্র": 10933,
  "▁যাত্রা": 10934,
  "▁যাত্রী": 10935,
  "▁যাদ": 10936,
  "▁যাদব": 10937,
  "▁যাদু": 10938,
  "▁যাদের": 10939,
  "▁যান": 10940,
  "▁যান,": 10941,
  "▁যান।": 10942,
  "▁যানবাহ": 10943,
  "▁যান্ত্রিক": 10944,
  "▁যাব": 10945,
  "▁যাবত": 10946,
  "▁যাবার": 10947,
  "▁যাবে": 10948,
  "▁যাবে।": 10949,
  "▁যায়": 10950,
  "▁যায়,": 10951,
  "▁যায়।": 10952,
  "▁যায়নি।": 10953,
  "▁যার": 10954,
  "▁যারা": 10955,
  "▁যিনি": 10956,
  "▁যুক্ত": 10957,
  "▁যুক্ত।": 10958,
  "▁যুক্তরা": 10959,
  "▁যুক্তরাজ": 10960,
  "▁যুক্তরাজ্য": 10961,
  "▁যুক্তরাজ্যে": 10962,
  "▁যুক্তরাজ্যের": 10963,
  "▁যুক্তরাষ্ট্র": 10964,
  "▁যুক্তরাষ্ট্রে": 10965,
  "▁যুক্তরাষ্ট্রের": 10966,
  "▁যুক্তি": 10967,
  "▁যুগ": 10968,
  "▁যুগে": 10969,
  "▁যুগের": 10970,
  "▁যুদ্ধ": 10971,
  "▁যুদ্ধে": 10972,
  "▁যুদ্ধের": 10973,
  "▁যুব": 10974,
  "▁যে": 10975,
  "▁যে,": 10976,
  "▁যেকোন": 10977,
  "▁যেকোনো": 10978,
  "▁যেখানে": 10979,
  "▁যেগুলি": 10980,
  "▁যেগুলো": 10981,
  "▁যেট": 10982,
  "▁যেটা": 10983,
  "▁যেটি": 10984,
  "▁যেতে": 10985,
  "▁যেন": 10986,
  "▁যেমন": 10987,
  "▁যেমন,": 10988,
  "▁যেমন-": 10989,
  "▁যেমন:": 10990,
  "▁যেসব": 10991,
  "▁যেহেতু": 10992,
  "▁যোগ": 10993,
  "▁যোগদান": 10994,
  "▁যোগদানের": 10995,
  "▁যোগাযোগ": 10996,
  "▁যোগাযোগের": 10997,
  "▁যোগ্য": 10998,
  "▁যোগ্যতা": 10999,
  "▁যোদ্ধ": 11000,
  "▁যোদ্ধা": 11001,
  "▁যৌ": 11002,
  "▁যৌগ": 11003,
  "▁যৌথ": 11004,
  "▁যৌথভাবে": 11005,
  "▁যৌন": 11006,
  "▁র": 11007,
  "▁রং": 11008,
  "▁রংপুর": 11009,
  "▁রও": 11010,
  "▁রক": 11011,
  "▁রকম": 11012,
  "▁রকেট": 11013,
  "▁রক্ত": 11014,
  "▁রক্ষ": 11015,
  "▁রক্ষণ": 11016,
  "▁রক্ষণভাগের": 11017,
  "▁রক্ষণাবেক্ষণ": 11018,
  "▁রক্ষা": 11019,
  "▁রক্ষার": 11020,
  "▁রঙ": 11021,
  "▁রঙিন": 11022,
  "▁রঙের": 11023,
  "▁রঙ্গ": 11024,
  "▁রচ": 11025,
  "▁রচন": 11026,
  "▁রচনা": 11027,
  "▁রচনার": 11028,
  "▁রচয়": 11029,
  "▁রচিত": 11030,
  "▁রজ": 11031,
  "▁রঞ্জ": 11032,
  "▁রণ": 11033,
  "▁রত্ন": 11034,
  "▁রথ": 11035,
  "▁রন্ধন": 11036,
  "▁রন্ধনশৈলী": 11037,
  "▁রপ্ত": 11038,
  "▁রপ্তানি": 11039,
  "▁রবার্ট": 11040,
  "▁রবি": 11041,
  "▁রবীন্দ্র": 11042,
  "▁রবীন্দ্রনাথ": 11043,
  "▁রম": 11044,
  "▁রয়": 11045,
  "▁রয়ে": 11046,
  "▁রয়েছে": 11047,
  "▁রয়েছে,": 11048,
  "▁রয়েছে:": 11049,
  "▁রয়েছে।": 11050,
  "▁রয়েছেন": 11051,
  "▁রয়েছেন।": 11052,
  "▁রয়েল": 11053,
  "▁রয়্যাল": 11054,
  "▁রশ": 11055,
  "▁রশিদ": 11056,
  "▁রস": 11057,
  "▁রসায়ন": 11058,
  "▁রসায়নবিদ": 11059,
  "▁রহ": 11060,
  "▁রহমান": 11061,
  "▁রহমানের": 11062,
  "▁রহস্য": 11063,
  "▁রা": 11064,
  "▁রাই": 11065,
  "▁রাইট": 11066,
  "▁রাইফেল": 11067,
  "▁রাউন্ড": 11068,
  "▁রাও": 11069,
  "▁রাখ": 11070,
  "▁রাখতে": 11071,
  "▁রাখা": 11072,
  "▁রাখার": 11073,
  "▁রাখে": 11074,
  "▁রাখে।": 11075,
  "▁রাখেন": 11076,
  "▁রাখেন।": 11077,
  "▁রাগ": 11078,
  "▁রাঙ্গ": 11079,
  "▁রাজ": 11080,
  "▁রাজকীয়": 11081,
  "▁রাজত্ব": 11082,
  "▁রাজধান": 11083,
  "▁রাজধানী": 11084,
  "▁রাজনীতি": 11085,
  "▁রাজনীতিতে": 11086,
  "▁রাজনীতিবিদ": 11087,
  "▁রাজনীতিবিদ,": 11088,
  "▁রাজনীতিবিদ।": 11089,
  "▁রাজনীতির": 11090,
  "▁রাজনৈতিক": 11091,
  "▁রাজবংশ": 11092,
  "▁রাজবংশের": 11093,
  "▁রাজশ": 11094,
  "▁রাজশাহী": 11095,
  "▁রাজস্থান": 11096,
  "▁রাজস্থানের": 11097,
  "▁রাজস্ব": 11098,
  "▁রাজা": 11099,
  "▁রাজার": 11100,
  "▁রাজি": 11101,
  "▁রাজ্য": 11102,
  "▁রাজ্যে": 11103,
  "▁রাজ্যের": 11104,
  "▁রাণী": 11105,
  "▁রাত": 11106,
  "▁রাতে": 11107,
  "▁রাতের": 11108,
  "▁রাধ": 11109,
  "▁রান": 11110,
  "▁রানা": 11111,
  "▁রানার": 11112,
  "▁রানার-আপ": 11113,
  "▁রানী": 11114,
  "▁রানে": 11115,
  "▁রানের": 11116,
  "▁রান্না": 11117,
  "▁রাব": 11118,
  "▁রাম": 11119,
  "▁রামকৃষ্ণ": 11120,
  "▁রামায়ণ": 11121,
  "▁রায়": 11122,
  "▁রায়ের": 11123,
  "▁রাশ": 11124,
  "▁রাশিয়া": 11125,
  "▁রাশিয়ান": 11126,
  "▁রাশিয়ার": 11127,
  "▁রাষ্ট্র": 11128,
  "▁রাষ্ট্রদূত": 11129,
  "▁রাষ্ট্রপতি": 11130,
  "▁রাষ্ট্রপতির": 11131,
  "▁রাষ্ট্রীয়": 11132,
  "▁রাষ্ট্রের": 11133,
  "▁রাস": 11134,
  "▁রাসায়নিক": 11135,
  "▁রাস্ত": 11136,
  "▁রাস্তা": 11137,
  "▁রাস্তাটি": 11138,
  "▁রাস্তায়": 11139,
  "▁রাস্তার": 11140,
  "▁রাহ": 11141,
  "▁রি": 11142,
  "▁রিং": 11143,
  "▁রিক": 11144,
  "▁রিচ": 11145,
  "▁রিচার্ড": 11146,
  "▁রিজ": 11147,
  "▁রিজার্ভ": 11148,
  "▁রিট": 11149,
  "▁রিড": 11150,
  "▁রিপ": 11151,
  "▁রিপাবলিক": 11152,
  "▁রিপোর্ট": 11153,
  "▁রিফ": 11154,
  "▁রিভ": 11155,
  "▁রিম": 11156,
  "▁রিয়াল": 11157,
  "▁রিল": 11158,
  "▁রিস": 11159,
  "▁রিসার্চ": 11160,
  "▁রীত": 11161,
  "▁রীতি": 11162,
  "▁রু": 11163,
  "▁রুট": 11164,
  "▁রুদ্র": 11165,
  "▁রুপ": 11166,
  "▁রুম": 11167,
  "▁রুশ": 11168,
  "▁রূপ": 11169,
  "▁রূপান্তর": 11170,
  "▁রূপান্তরিত": 11171,
  "▁রূপে": 11172,
  "▁রে": 11173,
  "▁রেই": 11174,
  "▁রেক": 11175,
  "▁রেকর্ড": 11176,
  "▁রেখ": 11177,
  "▁রেখা": 11178,
  "▁রেখে": 11179,
  "▁রেখেছে।": 11180,
  "▁রেজ": 11181,
  "▁রেজিম": 11182,
  "▁রেজিমেন্ট": 11183,
  "▁রেজিস্ট": 11184,
  "▁রেটিং": 11185,
  "▁রেড": 11186,
  "▁রেডিও": 11187,
  "▁রেন": 11188,
  "▁রেফ": 11189,
  "▁রেল": 11190,
  "▁রেলওয়ে": 11191,
  "▁রেলওয়ের": 11192,
  "▁রেলপথ": 11193,
  "▁রেলপথের": 11194,
  "▁রেলের": 11195,
  "▁রেশ": 11196,
  "▁রেস": 11197,
  "▁রেস্ত": 11198,
  "▁রো": 11199,
  "▁রোগ": 11200,
  "▁রোগীর": 11201,
  "▁রোগে": 11202,
  "▁রোগের": 11203,
  "▁রোজ": 11204,
  "▁রোড": 11205,
  "▁রোধ": 11206,
  "▁রোব": 11207,
  "▁রোম": 11208,
  "▁রোমান": 11209,
  "▁রোল": 11210,
  "▁রোহ": 11211,
  "▁রৌ": 11212,
  "▁রৌপ": 11213,
  "▁রৌপ্য": 11214,
  "▁র‌": 11215,
  "▁র‌্যাঙ্ক": 11216,
  "▁র‌্যাঙ্কিং": 11217,
  "▁র‍": 11218,
  "▁ল": 11219,
  "▁লং": 11220,
  "▁লক": 11221,
  "▁লক্ষ": 11222,
  "▁লক্ষণ": 11223,
  "▁লক্ষ্ম": 11224,
  "▁লক্ষ্মী": 11225,
  "▁লক্ষ্মীপুর": 11226,
  "▁লক্ষ্য": 11227,
  "▁লক্ষ্যে": 11228,
  "▁লখন": 11229,
  "▁লঙ্ঘ": 11230,
  "▁লড়াই": 11231,
  "▁লন্ড": 11232,
  "▁লন্ডন": 11233,
  "▁লন্ডনে": 11234,
  "▁লন্ডনের": 11235,
  "▁লবণ": 11236,
  "▁লম্ব": 11237,
  "▁লম্বা": 11238,
  "▁লর": 11239,
  "▁লর্ড": 11240,
  "▁লস": 11241,
  "▁লা": 11242,
  "▁লাই": 11243,
  "▁লাইট": 11244,
  "▁লাইন": 11245,
  "▁লাইনে": 11246,
  "▁লাইনের": 11247,
  "▁লাইফ": 11248,
  "▁লাইব্র": 11249,
  "▁লাইব্রের": 11250,
  "▁লাইব্রেরি": 11251,
  "▁লাইভ": 11252,
  "▁লাইস": 11253,
  "▁লাইসেন্স": 11254,
  "▁লাউ": 11255,
  "▁লাও": 11256,
  "▁লাক": 11257,
  "▁লাখ": 11258,
  "▁লাগ": 11259,
  "▁লাত": 11260,
  "▁লাতিন": 11261,
  "▁লাভ": 11262,
  "▁লাভের": 11263,
  "▁লাম": 11264,
  "▁লাল": 11265,
  "▁লাহ": 11266,
  "▁লাহোর": 11267,
  "▁লি": 11268,
  "▁লিউ": 11269,
  "▁লিওন": 11270,
  "▁লিখ": 11271,
  "▁লিখিত": 11272,
  "▁লিখে": 11273,
  "▁লিখেছেন": 11274,
  "▁লিখেছেন।": 11275,
  "▁লিগ": 11276,
  "▁লিগে": 11277,
  "▁লিগের": 11278,
  "▁লিঙ্গ": 11279,
  "▁লিট": 11280,
  "▁লিড": 11281,
  "▁লিন": 11282,
  "▁লিনাক্স": 11283,
  "▁লিপ": 11284,
  "▁লিপি": 11285,
  "▁লিপিবদ্ধ": 11286,
  "▁লিপ্ত": 11287,
  "▁লিব": 11288,
  "▁লিভ": 11289,
  "▁লিম": 11290,
  "▁লিমিটেড": 11291,
  "▁লিমিটেডের": 11292,
  "▁লিস্ট": 11293,
  "▁লী": 11294,
  "▁লীগ": 11295,
  "▁লীগে": 11296,
  "▁লীগের": 11297,
  "▁লু": 11298,
  "▁লুই": 11299,
  "▁লুইস": 11300,
  "▁লুক": 11301,
  "▁লুকিয়ে": 11302,
  "▁লুট": 11303,
  "▁লুস": 11304,
  "▁লে": 11305,
  "▁লেক": 11306,
  "▁লেখ": 11307,
  "▁লেখক": 11308,
  "▁লেখক,": 11309,
  "▁লেখক।": 11310,
  "▁লেখা": 11311,
  "▁লেখার": 11312,
  "▁লেখিকা": 11313,
  "▁লেগ": 11314,
  "▁লেগে": 11315,
  "▁লেজ": 11316,
  "▁লেজার": 11317,
  "▁লেট": 11318,
  "▁লেডি": 11319,
  "▁লেন": 11320,
  "▁লেফ": 11321,
  "▁লেফটেন": 11322,
  "▁লেফটেন্যান্ট": 11323,
  "▁লেব": 11324,
  "▁লেবান": 11325,
  "▁লেভ": 11326,
  "▁লেস": 11327,
  "▁লো": 11328,
  "▁লোক": 11329,
  "▁লোকদের": 11330,
  "▁লোকসভা": 11331,
  "▁লোকসভার": 11332,
  "▁লোকের": 11333,
  "▁লোকেরা": 11334,
  "▁লোহ": 11335,
  "▁ল্যা": 11336,
  "▁ল্যাঙ্ক": 11337,
  "▁ল্যাঙ্কাশ": 11338,
  "▁ল্যাটিন": 11339,
  "▁ল্যান্ড": 11340,
  "▁ল্যাব": 11341,
  "▁ল্যাবর": 11342,
  "▁শ": 11343,
  "▁শক্ত": 11344,
  "▁শক্তি": 11345,
  "▁শক্তির": 11346,
  "▁শক্তিশ": 11347,
  "▁শক্তিশালী": 11348,
  "▁শঙ্কর": 11349,
  "▁শত": 11350,
  "▁শতক": 11351,
  "▁শতকে": 11352,
  "▁শতকের": 11353,
  "▁শতা": 11354,
  "▁শতাংশ": 11355,
  "▁শতাধিক": 11356,
  "▁শতাব্দ": 11357,
  "▁শতাব্দী": 11358,
  "▁শতাব্দীতে": 11359,
  "▁শতাব্দীর": 11360,
  "▁শত্র": 11361,
  "▁শত্রু": 11362,
  "▁শনাক্ত": 11363,
  "▁শপথ": 11364,
  "▁শব্দ": 11365,
  "▁শব্দটি": 11366,
  "▁শব্দটির": 11367,
  "▁শব্দের": 11368,
  "▁শর": 11369,
  "▁শরণ": 11370,
  "▁শরী": 11371,
  "▁শরীফ": 11372,
  "▁শরীর": 11373,
  "▁শরীরের": 11374,
  "▁শর্ত": 11375,
  "▁শর্মা": 11376,
  "▁শরৎ": 11377,
  "▁শস্য": 11378,
  "▁শহ": 11379,
  "▁শহর": 11380,
  "▁শহর।": 11381,
  "▁শহরটি": 11382,
  "▁শহরটির": 11383,
  "▁শহরে": 11384,
  "▁শহরের": 11385,
  "▁শহীদ": 11386,
  "▁শহুরে": 11387,
  "▁শাক": 11388,
  "▁শাখ": 11389,
  "▁শাখা": 11390,
  "▁শাখায়": 11391,
  "▁শাখার": 11392,
  "▁শান": 11393,
  "▁শান্ত": 11394,
  "▁শান্তি": 11395,
  "▁শাব": 11396,
  "▁শাম": 11397,
  "▁শামস": 11398,
  "▁শার": 11399,
  "▁শারীর": 11400,
  "▁শারীরিক": 11401,
  "▁শাল": 11402,
  "▁শাস": 11403,
  "▁শাসক": 11404,
  "▁শাসন": 11405,
  "▁শাসনাম": 11406,
  "▁শাসনামলে": 11407,
  "▁শাসনের": 11408,
  "▁শাস্ত": 11409,
  "▁শাস্তি": 11410,
  "▁শাস্ত্র": 11411,
  "▁শাস্ত্রীয়": 11412,
  "▁শাহ": 11413,
  "▁শাহর": 11414,
  "▁শাহের": 11415,
  "▁শি": 11416,
  "▁শিক": 11417,
  "▁শিকার": 11418,
  "▁শিক্ষ": 11419,
  "▁শিক্ষক": 11420,
  "▁শিক্ষকতা": 11421,
  "▁শিক্ষা": 11422,
  "▁শিক্ষা,": 11423,
  "▁শিক্ষাজীবন": 11424,
  "▁শিক্ষাপ্র": 11425,
  "▁শিক্ষাপ্রতি": 11426,
  "▁শিক্ষাপ্রতিষ্ঠ": 11427,
  "▁শিক্ষাপ্রতিষ্ঠান": 11428,
  "▁শিক্ষাবিদ": 11429,
  "▁শিক্ষায়": 11430,
  "▁শিক্ষার": 11431,
  "▁শিক্ষার্থ": 11432,
  "▁শিক্ষার্থী": 11433,
  "▁শিক্ষার্থীদের": 11434,
  "▁শিক্ষার্থীরা": 11435,
  "▁শিক্ষিত": 11436,
  "▁শিখ": 11437,
  "▁শিন": 11438,
  "▁শিপ": 11439,
  "▁শিব": 11440,
  "▁শিবের": 11441,
  "▁শিম": 11442,
  "▁শিয়া": 11443,
  "▁শিয়াল": 11444,
  "▁শির": 11445,
  "▁শিরোন": 11446,
  "▁শিরোনাম": 11447,
  "▁শিরোনামে": 11448,
  "▁শিরোপা": 11449,
  "▁শিল": 11450,
  "▁শিলাল": 11451,
  "▁শিল্প": 11452,
  "▁শিল্পকল": 11453,
  "▁শিল্পকলা": 11454,
  "▁শিল্পী": 11455,
  "▁শিল্পে": 11456,
  "▁শিল্পের": 11457,
  "▁শিশ": 11458,
  "▁শিশু": 11459,
  "▁শিশুদের": 11460,
  "▁শিশুর": 11461,
  "▁শিশুশ": 11462,
  "▁শিশুশ্রম": 11463,
  "▁শিষ্য": 11464,
  "▁শী": 11465,
  "▁শীঘ্র": 11466,
  "▁শীঘ্রই": 11467,
  "▁শীত": 11468,
  "▁শীতকালীন": 11469,
  "▁শীতকালে": 11470,
  "▁শীতল": 11471,
  "▁শীর্ষ": 11472,
  "▁শীর্ষস্থানীয়": 11473,
  "▁শীর্ষে": 11474,
  "▁শু": 11475,
  "▁শুক": 11476,
  "▁শুকনো": 11477,
  "▁শুক্র": 11478,
  "▁শুটিং": 11479,
  "▁শুধ": 11480,
  "▁শুধু": 11481,
  "▁শুধুমাত্র": 11482,
  "▁শুন": 11483,
  "▁শুনে": 11484,
  "▁শুভ": 11485,
  "▁শুম": 11486,
  "▁শুরু": 11487,
  "▁শুরুতে": 11488,
  "▁শুরুর": 11489,
  "▁শুষ্ক": 11490,
  "▁শূ": 11491,
  "▁শূন্য": 11492,
  "▁শৃ": 11493,
  "▁শে": 11494,
  "▁শেক": 11495,
  "▁শেখ": 11496,
  "▁শেফ": 11497,
  "▁শেয়ার": 11498,
  "▁শের": 11499,
  "▁শেল": 11500,
  "▁শেষ": 11501,
  "▁শেষদিকে": 11502,
  "▁শেষে": 11503,
  "▁শেষের": 11504,
  "▁শৈ": 11505,
  "▁শৈল": 11506,
  "▁শৈলী": 11507,
  "▁শৈশ": 11508,
  "▁শৈশব": 11509,
  "▁শো": 11510,
  "▁শোষণ": 11511,
  "▁শৌ": 11512,
  "▁শ্ব": 11513,
  "▁শ্বাস": 11514,
  "▁শ্যাম": 11515,
  "▁শ্র": 11516,
  "▁শ্রদ্ধ": 11517,
  "▁শ্রদ্ধা": 11518,
  "▁শ্রম": 11519,
  "▁শ্রমিক": 11520,
  "▁শ্রী": 11521,
  "▁শ্রীক": 11522,
  "▁শ্রীন": 11523,
  "▁শ্রীর": 11524,
  "▁শ্রীল": 11525,
  "▁শ্রীলঙ্ক": 11526,
  "▁শ্রীলঙ্কা": 11527,
  "▁শ্রীলঙ্কান": 11528,
  "▁শ্রীলঙ্কার": 11529,
  "▁শ্রে": 11530,
  "▁শ্রেণ": 11531,
  "▁শ্রেণি": 11532,
  "▁শ্রেণির": 11533,
  "▁শ্রেণী": 11534,
  "▁শ্রেণী)": 11535,
  "▁শ্রেণীতে": 11536,
  "▁শ্রেণীব": 11537,
  "▁শ্রেণীবদ্ধ": 11538,
  "▁শ্রেণীর": 11539,
  "▁শ্রেষ্ঠ": 11540,
  "▁শ্রেষ্ঠাংশে": 11541,
  "▁শ্ল": 11542,
  "▁শ্লোক": 11543,
  "▁ষ": 11544,
  "▁ষড়": 11545,
  "▁ষড়যন্ত্র": 11546,
  "▁ষষ্ঠ": 11547,
  "▁ষোড়শ": 11548,
  "▁স": 11549,
  "▁সং": 11550,
  "▁সংক": 11551,
  "▁সংকর": 11552,
  "▁সংকল": 11553,
  "▁সংকলন": 11554,
  "▁সংকেত": 11555,
  "▁সংক্র": 11556,
  "▁সংক্রম": 11557,
  "▁সংক্রমণ": 11558,
  "▁সংক্রান্ত": 11559,
  "▁সংক্ষিপ্ত": 11560,
  "▁সংক্ষেপ": 11561,
  "▁সংক্ষেপে": 11562,
  "▁সংখ": 11563,
  "▁সংখ্য": 11564,
  "▁সংখ্যক": 11565,
  "▁সংখ্যা": 11566,
  "▁সংখ্যাগ": 11567,
  "▁সংখ্যাগরিষ্ঠ": 11568,
  "▁সংখ্যায়": 11569,
  "▁সংখ্যার": 11570,
  "▁সংখ্যাল": 11571,
  "▁সংখ্যালঘু": 11572,
  "▁সংগ": 11573,
  "▁সংগঠ": 11574,
  "▁সংগঠন": 11575,
  "▁সংগঠনের": 11576,
  "▁সংগঠিত": 11577,
  "▁সংগীত": 11578,
  "▁সংগ্রহ": 11579,
  "▁সংগ্রহের": 11580,
  "▁সংগ্রাম": 11581,
  "▁সংঘ": 11582,
  "▁সংঘটিত": 11583,
  "▁সংঘর্ষ": 11584,
  "▁সংঘাত": 11585,
  "▁সংজ্ঞ": 11586,
  "▁সংজ্ঞা": 11587,
  "▁সংজ্ঞায়িত": 11588,
  "▁সংবাদ": 11589,
  "▁সংবাদপত্র": 11590,
  "▁সংবাদপত্রের": 11591,
  "▁সংবিধান": 11592,
  "▁সংবিধানের": 11593,
  "▁সংবেদন": 11594,
  "▁সংবেদনশীল": 11595,
  "▁সংমিশ্র": 11596,
  "▁সংযুক্ত": 11597,
  "▁সংযোগ": 11598,
  "▁সংযোজন": 11599,
  "▁সংরক্ষ": 11600,
  "▁সংরক্ষণ": 11601,
  "▁সংরক্ষণের": 11602,
  "▁সংরক্ষিত": 11603,
  "▁সংল": 11604,
  "▁সংলগ্ন": 11605,
  "▁সংলাপ": 11606,
  "▁সংশ": 11607,
  "▁সংশোধ": 11608,
  "▁সংশোধন": 11609,
  "▁সংশ্লিষ্ট": 11610,
  "▁সংস": 11611,
  "▁সংসদ": 11612,
  "▁সংসদীয়": 11613,
  "▁সংসদে": 11614,
  "▁সংসদের": 11615,
  "▁সংস্ক": 11616,
  "▁সংস্করণ": 11617,
  "▁সংস্করণে": 11618,
  "▁সংস্করণের": 11619,
  "▁সংস্কার": 11620,
  "▁সংস্কারের": 11621,
  "▁সংস্কৃত": 11622,
  "▁সংস্কৃতি": 11623,
  "▁সংস্কৃতিতে": 11624,
  "▁সংস্কৃতির": 11625,
  "▁সংস্থ": 11626,
  "▁সংস্থা": 11627,
  "▁সংস্থা।": 11628,
  "▁সংস্থাটি": 11629,
  "▁সংস্থার": 11630,
  "▁সংস্পর্শ": 11631,
  "▁সক": 11632,
  "▁সকল": 11633,
  "▁সকলের": 11634,
  "▁সকাল": 11635,
  "▁সক্র": 11636,
  "▁সক্রিয়": 11637,
  "▁সক্ষম": 11638,
  "▁সক্ষম।": 11639,
  "▁সক্ষমতা": 11640,
  "▁সঙ্গ": 11641,
  "▁সঙ্গী": 11642,
  "▁সঙ্গীত": 11643,
  "▁সঙ্গীতজ্ঞ": 11644,
  "▁সঙ্গীতশিল্পী": 11645,
  "▁সঙ্গীতের": 11646,
  "▁সঙ্গে": 11647,
  "▁সচ": 11648,
  "▁সচিব": 11649,
  "▁সচে": 11650,
  "▁সচেতন": 11651,
  "▁সজ্জিত": 11652,
  "▁সঞ্চ": 11653,
  "▁সঞ্জ": 11654,
  "▁সঠ": 11655,
  "▁সঠিক": 11656,
  "▁সঠিকভাবে": 11657,
  "▁সড়": 11658,
  "▁সড়ক": 11659,
  "▁সত": 11660,
  "▁সতর্ক": 11661,
  "▁সতী": 11662,
  "▁সত্ত্বেও": 11663,
  "▁সত্ত্বেও,": 11664,
  "▁সত্য": 11665,
  "▁সদ": 11666,
  "▁সদর": 11667,
  "▁সদস্য": 11668,
  "▁সদস্য,": 11669,
  "▁সদস্য।": 11670,
  "▁সদস্যদের": 11671,
  "▁সদস্যপদ": 11672,
  "▁সদস্যরা": 11673,
  "▁সদস্যরূপে": 11674,
  "▁সদস্যের": 11675,
  "▁সন": 11676,
  "▁সনদ": 11677,
  "▁সনাক্ত": 11678,
  "▁সনে": 11679,
  "▁সন্": 11680,
  "▁সন্ত": 11681,
  "▁সন্তান": 11682,
  "▁সন্তানের": 11683,
  "▁সন্তোষ": 11684,
  "▁সন্ত্র": 11685,
  "▁সন্ত্রাস": 11686,
  "▁সন্দ": 11687,
  "▁সন্দেহ": 11688,
  "▁সন্ধ": 11689,
  "▁সন্ধান": 11690,
  "▁সন্ন": 11691,
  "▁সন্ন্যাস": 11692,
  "▁সপ্ত": 11693,
  "▁সপ্তম": 11694,
  "▁সপ্তাহ": 11695,
  "▁সপ্তাহে": 11696,
  "▁সপ্তাহের": 11697,
  "▁সফ": 11698,
  "▁সফট": 11699,
  "▁সফটওয়্যার": 11700,
  "▁সফর": 11701,
  "▁সফরকারী": 11702,
  "▁সফরে": 11703,
  "▁সফরের": 11704,
  "▁সফল": 11705,
  "▁সফলতা": 11706,
  "▁সফলভাবে": 11707,
  "▁সব": 11708,
  "▁সবগুলো": 11709,
  "▁সবচেয়ে": 11710,
  "▁সবসময়": 11711,
  "▁সবাই": 11712,
  "▁সবার": 11713,
  "▁সবুজ": 11714,
  "▁সভ": 11715,
  "▁সভা": 11716,
  "▁সভাপ": 11717,
  "▁সভাপতি": 11718,
  "▁সভাপতির": 11719,
  "▁সভায়": 11720,
  "▁সভ্য": 11721,
  "▁সভ্যতা": 11722,
  "▁সভ্যতার": 11723,
  "▁সম": 11724,
  "▁সমক": 11725,
  "▁সমকাম": 11726,
  "▁সমকামী": 11727,
  "▁সমগ্র": 11728,
  "▁সমতল": 11729,
  "▁সমতুল": 11730,
  "▁সমতুল্য": 11731,
  "▁সমন্ব": 11732,
  "▁সমন্বয়": 11733,
  "▁সমন্বয়ে": 11734,
  "▁সমন্বিত": 11735,
  "▁সময়": 11736,
  "▁সময়,": 11737,
  "▁সময়কাল": 11738,
  "▁সময়কালে": 11739,
  "▁সময়সূচ": 11740,
  "▁সময়ে": 11741,
  "▁সময়ে,": 11742,
  "▁সময়ের": 11743,
  "▁সমর্থ": 11744,
  "▁সমর্থন": 11745,
  "▁সমষ্টি": 11746,
  "▁সমস": 11747,
  "▁সমসাম": 11748,
  "▁সমসাময়িক": 11749,
  "▁সমস্ত": 11750,
  "▁সমস্য": 11751,
  "▁সমস্যা": 11752,
  "▁সমস্যার": 11753,
  "▁সমা": 11754,
  "▁সমাজ": 11755,
  "▁সমাজতান্ত্রিক": 11756,
  "▁সমাজে": 11757,
  "▁সমাজের": 11758,
  "▁সমাধ": 11759,
  "▁সমাধান": 11760,
  "▁সমাধি": 11761,
  "▁সমান": 11762,
  "▁সমান্তর": 11763,
  "▁সমান্তরাল": 11764,
  "▁সমাপ্ত": 11765,
  "▁সমাপ্তি": 11766,
  "▁সমাবেশ": 11767,
  "▁সমাল": 11768,
  "▁সমালোচ": 11769,
  "▁সমালোচক": 11770,
  "▁সমালোচকদের": 11771,
  "▁সমালোচনা": 11772,
  "▁সমিতি": 11773,
  "▁সমিতির": 11774,
  "▁সমী": 11775,
  "▁সমীকরণ": 11776,
  "▁সমুদ্র": 11777,
  "▁সমুদ্রের": 11778,
  "▁সমূহ": 11779,
  "▁সমৃদ্ধ": 11780,
  "▁সম্": 11781,
  "▁সম্প": 11782,
  "▁সম্পত্তি": 11783,
  "▁সম্পদ": 11784,
  "▁সম্পদের": 11785,
  "▁সম্পন্ন": 11786,
  "▁সম্পর্": 11787,
  "▁সম্পর্ক": 11788,
  "▁সম্পর্কিত": 11789,
  "▁সম্পর্কিত।": 11790,
  "▁সম্পর্কে": 11791,
  "▁সম্পর্কের": 11792,
  "▁সম্পাদ": 11793,
  "▁সম্পাদক": 11794,
  "▁সম্পাদন": 11795,
  "▁সম্পাদনা": 11796,
  "▁সম্পাদিত": 11797,
  "▁সম্পূর্ণ": 11798,
  "▁সম্পূর্ণরূপে": 11799,
  "▁সম্পৃক্ত": 11800,
  "▁সম্প্র": 11801,
  "▁সম্প্রচার": 11802,
  "▁সম্প্রতি": 11803,
  "▁সম্প্রদ": 11804,
  "▁সম্প্রদায়": 11805,
  "▁সম্প্রদায়ের": 11806,
  "▁সম্প্রসারণ": 11807,
  "▁সম্ব": 11808,
  "▁সম্বন্ধ": 11809,
  "▁সম্বন্ধে": 11810,
  "▁সম্ভব": 11811,
  "▁সম্ভব।": 11812,
  "▁সম্ভবত": 11813,
  "▁সম্ভাব": 11814,
  "▁সম্ভাবনা": 11815,
  "▁সম্ভাব্য": 11816,
  "▁সম্ম": 11817,
  "▁সম্মত": 11818,
  "▁সম্মান": 11819,
  "▁সম্মাননা": 11820,
  "▁সম্মানসূচক": 11821,
  "▁সম্মানিত": 11822,
  "▁সম্মানে": 11823,
  "▁সম্মিল": 11824,
  "▁সম্মিলিত": 11825,
  "▁সম্মুখ": 11826,
  "▁সম্মুখীন": 11827,
  "▁সম্মেল": 11828,
  "▁সম্মেলন": 11829,
  "▁সম্মেলনে": 11830,
  "▁সম্রাট": 11831,
  "▁সর": 11832,
  "▁সরকার": 11833,
  "▁সরকারকে": 11834,
  "▁সরকারি": 11835,
  "▁সরকারী": 11836,
  "▁সরকারের": 11837,
[...]
